[PAD]
[UNK]
[CLS]
[SEP]
[MASK]
!
"
#
$
%
&
'
(
)
*
+
,
-
.
/
0
1
2
3
4
5
6
7
8
9
:
;
<
=
>
?
@
A
B
C
D
E
F
G
H
I
J
K
L
M
N
O
P
Q
R
S
T
U
V
W
X
Y
Z
[
\
]
^
_
`
a
b
c
d
e
f
g
h
i
j
k
l
m
n
o
p
q
r
s
t
u
v
w
x
y
z
{
|
}
~
¢
¤
¥
§
ª
°
µ
·
º
Ø
ß
ø
ſ
ȶ
ɐ
ˁ
ˆ
ˑ
ˠ
ˤ
ˮ
ͺ
Α
Ε
Η
Ι
Ο
Ρ
Σ
Υ
Ω
α
ε
η
ι
ο
υ
ω
ϐ
ϵ
Ϸ
ϻ
А
Е
Ы
ч
ы
ҁ
Ҋ
ӎ
Ԁ
ԏ
Ա
Ֆ
ՙ
ա
և
א
ז
ט
י
ל
מ
נ
ס
ף
פ
צ
ש
ת
װ
ײ
ء
غ
ـ
٠
٩
ٮ
ے
ە
ۼ
ۿ
ݍ
ݏ
ހ
ޱ
क
ह
ॐ
०
९
ঃ
অ
ঌ
এ
ঐ
ও
ড
ঢ
ন
প
য
র
ল
শ
হ
া
ে
ৈ
ৗ
০
৳
ਃ
ਅ
ਊ
ਏ
ਐ
ਓ
ਖ
ਨ
ਪ
ਫ
ਰ
ਲ
ਵ
ਸ
ਹ
ਾ
ੜ
੦
ੴ
ઃ
અ
ઍ
એ
ઑ
ઓ
ન
પ
ર
લ
ળ
વ
હ
ૉ
ો
ૐ
ૠ
૦
૯
૱
ଃ
ଅ
ଌ
ଏ
ଐ
ଓ
ଡ
ଢ
ନ
ପ
ର
ଲ
ଳ
ଵ
ହ
ା
େ
ୗ
ୟ
ୡ
୦
୯
ୱ
ஃ
அ
ஊ
எ
ஐ
ஒ
க
ங
ச
ஜ
ஞ
ட
ண
த
ந
ப
ம
வ
ஷ
ஹ
ா
ூ
ெ
ை
ௗ
௧
௯
௹
ఁ
ః
అ
ఌ
ఎ
ఐ
ఒ
న
ప
ళ
వ
హ
ౄ
ౠ
ౡ
౦
౯
ಂ
ಃ
ಅ
ಌ
ಎ
ಐ
ಒ
ನ
ಪ
ಳ
ವ
ಹ
ೂ
ೄ
ೕ
ೖ
ೞ
ೠ
ೡ
೦
೯
ം
ഃ
അ
ഌ
എ
ഐ
ഒ
ന
പ
ഹ
ാ
െ
ൈ
ൗ
ൠ
ൡ
൦
൯
ං
ඃ
අ
ඖ
ක
න
ඳ
ර
ල
ව
ෆ
ා
ෘ
ෟ
ෲ
ෳ
ก
฿
๐
๙
ກ
ຂ
ຄ
ງ
ຈ
ຊ
ຍ
ດ
ທ
ນ
ຟ
ມ
ຣ
ລ
ວ
ສ
ຫ
ອ
ຽ
ເ
ໄ
ໆ
໐
໙
ໜ
ໝ
ༀ
༠
༩
༾
ཇ
ཉ
ཪ
ྋ
က
အ
ဣ
ဧ
ဩ
ဪ
ာ
၀
၉
ၐ
Ⴀ
Ⴥ
ა
ჸ
ᄀ
ᄃ
ᄅ
ᄇ
ᄉ
ᄋ
ᄌ
ᄐ
ᄒ
ᅙ
ᅟ
ᅡ
ᅢ
ᅥ
ᅦ
ᅧ
ᅩ
ᅪ
ᅬ
ᅭ
ᅮ
ᅯ
ᅳ
ᅵ
ᆢ
ᆨ
ᆫ
ᆯ
ᆷ
ᆸ
ᆼ
ᇂ
ᇹ
ሀ
ሆ
ለ
ቆ
ቈ
ቊ
ቍ
ቐ
ቖ
ቘ
ቚ
ቝ
በ
ኆ
ኈ
ኊ
ኍ
ነ
ኮ
ኰ
ኲ
ኵ
ኸ
ኾ
ዀ
ዂ
ዅ
ወ
ዎ
ዐ
ዖ
ዘ
ዮ
ደ
ጎ
ጐ
ጒ
ጕ
ጘ
ጞ
ጠ
ፆ
ፈ
ፚ
፩
፱
Ꭰ
Ᏼ
ᐁ
ᙬ
ᙯ
ᙶ
ᚁ
ᚚ
ᚠ
ᛪ
ᛮ
ᛰ
ᜀ
ᜌ
ᜎ
ᜠ
ᝀ
ᝠ
ᝬ
ᝮ
ᝰ
ក
ៗ
៛
០
៩
᠐
᠙
ᠠ
ᡷ
ᢀ
ᤀ
ᤜ
ᤫ
ᤰ
᥆
ᥭ
ᥰ
ᥴ
ᴀ
ᵫ
–
‘
’
“
”
…
‿
⁀
⁔
ⁱ
ⁿ
₠
€
₱
ℂ
ℇ
ℊ
ℓ
ℕ
ℙ
ℝ
ℤ
ℨ
ℭ
ℯ
ℱ
ℳ
ℹ
ℽ
ℿ
ⅅ
ⅉ
Ⅰ
Ↄ
∞
≤
≥
、
。
々
〇
【
】
〡
〯
〱
〵
〸
〼
ぁ
ゖ
ゝ
ゟ
ァ
ヿ
ㄅ
ㄬ
ㄱ
ㆎ
ㆠ
ㆷ
ㇰ
ㇿ
㐀
䶵
一
七
万
三
上
下
不
与
两
个
中
串
为
主
义
之
九
书
了
二
于
五
从
付
代
以
件
任
会
传
似
体
作
使
例
侮
保
信
修
值
停
允
元
入
全
八
公
六
共
关
其
典
内
册
写
出
函
分
列
则
创
初
删
别
到
制
前
功
加
务
动
包
化
区
十
千
单
原
参
发
取
口
句
可
号
合
同
名
后
含
启
周
和
器
四
回
因
图
在
地
型
填
处
复
多
大
天
失
头
始
媒
子
字
存
完
定
实
客
容
密
对
射
将
小
少
属
已
常
年
并
序
库
应
度
建
开
异
式
当
录
径
待
必
忽
性
总
息
成
我
或
户
所
扫
找
报
抽
持
指
换
据
接
控
描
提
支
收
改
效
数
整
文
料
新
方
无
日
时
明
星
是
最
月
有
服
期
未
本
机
权
板
构
析
果
查
标
根
格
检
模
次
正
此
段
每
毕
求
池
没
法
注
流
测
消
添
源
滤
点
片
现
理
生
用
略
百
的
监
目
直
相
知
短
码
确
私
秒
称
移
程
空
立
端
符
第
等
签
算
类
系
线
组
经
绑
结
统
续
维
缓
编
缩
置
者
耗
能
自
致
节
获
菜
行
表
被
要
规
解
计
认
许
设
访
证
评
识
词
试
询
该
语
误
请
读
调
豈
象
败
资
超
路
转
载
输
达
过
返
这
进
连
送
选
通
造
邮
部
配
里
重
量
钟
钥
错
长
闭
问
间
际
除
集
零
非
面
頻
页
项
须
题
验
鶴
默
龥
ꀀ
ꒌ
ﬀ
ﬆ
ﬓ
ﬗ
ﬨ
ﮱ
ﯓ
ﴽ
ﵐ
ﶏ
ﶒ
ﷇ
ﷰ
﷼
︳
︴
﹍
﹏
﹩
ﹰ
ﹴ
ﹶ
ﻼ
！
＄
（
）
，
．
０
９
：
；
Ａ
Ｚ
＿
ａ
ｚ
･
ﾾ
ￂ
ￇ
ￊ
ￏ
ￒ
ￗ
ￚ
ￜ
￠
￡
￥
￦
￼
￾
￿
##n
##a
##c
##k
##b
##r
##e
##t
##L
##o
##O
##j
##x
##S
##i
##z
##B
##y
##s
##l
##u
##m
##F
##D
##p
##M
##V
##W
##R
##d
##C
##I
##P
##v
##1
##0
##A
##g
##w
##N
##T
##6
##8
##f
##h
##U
##E
##G
##K
##H
##X
##3
##2
##Q
##Y
##4
##7
##q
##J
##Z
##9
##5
##ᅡ
##ᄋ
##ᅵ
##ᄐ
##ᅦ
##ᆷ
##ᅩ
##ᅢ
##ᆨ
##ᄉ
##ᅳ
##ᅥ
##ᆫ
##ᆼ
##ᄒ
##ᆯ
##ø
##ᄌ
##ᄀ
##€
##∞
##９
##ା
##ᅮ
##ᅪ
##ᄅ
##ᄇ
##ᅭ
##ß
##া
##ᅧ
##¤
##ᆸ
##ா
##ч
##ാ
##°
##ᄃ
##ᅬ
##ᅯ
##Ø
##ᇂ
##ſ
##er
##et
##on
##at
##in
##es
##nt
##al
##ion
##le
##or
get
##tr
##ce
##ur
##ing
##ar
##me
##ro
##tion
##te
##ul
##is
##ic
if
##as
##an
##ec
##tring
ne
##de
ret
##en
##ub
##urn
new
return
##ate
##it
String
##ull
##se
##ut
th
##ption
##re
##lic
null
##ame
##il
##ri
##Ex
##ue
##ag
##ac
##ublic
public
##ception
##pe
##ol
##ab
##el
##id
##ess
##am
##ation
##ist
##Exception
##ype
##ch
##om
##In
##Name
##Con
fin
int
in
##ect
##oc
##ent
re
st
##ap
##able
##st
##ad
##qu
##ment
##ass
final
##ed
##ode
##alue
##row
res
##lass
##ig
##xt
##age
##ile
##ult
##Re
##est
throw
con
set
##ter
##per
##ry
is
##ject
##dd
##Type
this
##ver
##rr
##od
##ot
##iz
##ay
##um
##ey
##nd
pro
##pp
##our
##th
##bject
##St
##ase
add
for
##Res
##Id
##atch
##der
##ou
##pon
el
##ata
##oid
##quest
else
ex
##ath
void
##mp
##ource
##og
##all
##Pro
##erv
##ers
##ff
##oo
stat
to
##ack
##Value
##end
##put
##lo
##ef
##aram
ch
##ars
##List
##eng
##ength
static
tr
##dex
##ain
##ir
##To
##Bu
##IN
##ice
##ize
##ty
##ime
##art
app
##up
##ib
##and
##ve
##ance
##nc
##String
##ace
result
##lean
##iel
##fig
value
##ield
##ER
##tor
##rray
##tem
##ity
##ted
##if
##ponse
##ator
##oolean
##Class
##text
bu
##os
##ntry
##li
##rg
##ow
##ON
length
##ervice
throws
##essage
##tre
##lement
##Ch
Object
##Key
##int
##tream
com
append
case
##ition
##eg
try
##Com
##stance
##Map
##lec
##reate
##ser
##Request
##ount
List
##ilder
##En
catch
##eth
##Set
##til
##ure
##ress
##ethod
boolean
##Tr
##fo
##ong
##arsh
##ort
##arshall
##us
class
##ner
##verri
key
##ader
##ttr
##pl
##ext
##verride
##Data
##ock
##ute
##cess
##oub
##ine
##ouble
Override
name
##roup
##Path
##ms
true
pri
##rror
##als
create
log
##orm
##alse
##By
##ild
##lient
false
##AT
##File
##vate
##ument
##ord
##im
##ith
##ffer
##perty
##Ac
##ax
##cri
##Int
##vent
cur
##Object
Ex
##aramet
##eb
##rent
##Stream
private
##ak
##ans
##Node
##ies
##ang
##Util
##ttrib
##ore
##ach
##ug
##Config
##alid
##ial
equ
##abled
##Index
##ection
request
##ns
out
##Context
type
##ken
Con
##Builder
##av
equals
##eck
put
##Message
size
##Info
getS
##uer
##Response
##Enabled
##em
##yte
Int
##ant
##ES
##Time
##tt
##tain
##ID
##Element
##State
par
##Of
##get
##uery
index
##Field
##OR
##rom
##tent
##Po
##ler
##EN
In
##ocal
double
IO
##Col
##As
##iter
##ip
current
##rite
##Def
##ll
##toc
##ber
##ep
##tocol
start
##reak
##ault
##ys
##igh
##actor
long
##ule
instance
##ING
tc
##iste
##mo
IOException
##nn
##pd
##ilter
break
##Arg
##ask
##ponent
##ast
Class
Map
##ive
##LE
col
##Group
##ntity
##AR
##set
##ebug
data
##leg
ac
##uc
##ew
id
##uration
##arget
##ory
sub
##ev
next
##mpl
##op
##ence
Tr
##Array
File
Exception
toString
Array
##ttribute
##arshaller
##ttp
##ash
##lection
##ail
Cms
##str
##He
##Entry
##rl
##AL
##eger
##ger
##ound
##Marshaller
##With
input
##Result
##ION
##anag
##ystem
file
##Client
##alu
##odel
getA
##tocolMarshaller
LO
##Resource
getP
##ifi
write
##pdate
byte
##nection
##actory
##ight
##escri
resource
##arameter
##of
Pro
##ob
##ession
##ign
##ix
##mpty
path
entry
##Property
##lleg
##llegal
##out
read
field
##riter
##ork
##Count
##ly
##Size
##Service
##ache
Illegal
IN
##Stat
##00
pre
##Argument
##ind
##son
##stant
##ffset
pr
state
##ost
##ames
##UR
response
##pert
##par
##ml
##Item
##AM
##lock
remo
##perties
instanceof
##pt
##act
##ree
##oot
list
##umn
##Method
##ces
##andler
##anager
##putStream
Col
getName
cl
##Or
map
##ink
##IT
##umber
node
un
as
Integer
marshall
##alues
##Se
##Instance
##ackage
LOG
##unc
form
##ST
##Utils
def
config
##ava
method
##nnot
##ersion
##Not
se
protocolMarshaller
arg
##iew
contain
##Event
##terator
##ary
Com
##rap
##ings
##Out
str
##Option
##istener
##tec
getL
##press
##ean
##Component
wh
context
##nal
##un
max
##ust
check
##ED
error
##Factory
end
##Met
##Manager
##Form
##Empty
##fer
ArrayList
##tected
has
##Null
##Dir
##For
##tes
##ET
Res
protected
##ange
##atter
##ener
##nnotation
##pec
##upp
##AN
##eat
##Buffer
##ific
##DING
##ann
##ized
getD
getC
##pression
##Un
##From
print
remove
debug
he
##ete
##Token
##sg
##arams
##pi
##lose
##erm
##ync
##mage
##Error
##iv
parse
sh
##ution
service
##oint
sb
##uth
##Text
##ocation
pos
##Add
##let
BIN
target
Th
##erver
while
##EC
System
sc
##back
##Package
##ecord
##read
##bj
##pes
##At
exec
BINDING
##ArgumentException
##pace
##Code
##dent
##Pos
match
##irst
char
##bs
##Inter
del
##stants
##evel
##Handler
##Th
##arn
##ari
logger
default
Ch
##low
##loat
##CE
##On
IllegalArgumentException
format
##Call
message
##ypes
##All
java
##ENT
##unction
##Log
Type
PR
##Status
getM
##aw
##EF
##An
##ge
##form
##AS
##one
##Sc
LA
##Trans
##abel
Service
exte
##Next
Collection
##red
##annel
##arameters
##ody
##Table
##Names
update
source
buffer
##OL
##ated
##Defin
user
##yn
##peration
al
##erial
isEmpty
##uper
##fc
##Access
##az
##Filter
##Line
contains
init
ST
event
##ond
##res
##Content
##Str
comm
##Inner
last
##port
##Listener
min
trans
element
client
##action
##idth
##ptor
##User
##Configuration
##Connection
##Date
##AME
getValue
build
info
query
##erce
subs
##ook
St
##ard
##ill
##UL
##RI
##ocument
##Query
sw
##ded
##ources
find
##ps
##Format
##ider
##ron
##ages
call
##valid
##Definition
count
##ld
local
getMessage
##ference
num
msg
##UT
getR
parent
##Attribute
##Model
##End
##sert
##Impl
##Descri
##istr
##ual
Un
##Exec
it
item
##PE
##Sh
##name
##Version
##ector
##Tag
##opy
filter
##Lo
##adata
obj
##Start
##lication
row
close
group
##And
Http
##Length
##attern
##AG
builder
##Case
##eature
##dk
en
##Source
url
##Url
##Async
##rc
from
##arser
##nsion
StringBuilder
offset
##vider
Hash
##Constants
token
##acing
##arch
##rig
##empl
##unt
##Pre
##Child
##utes
Set
##ification
object
##lect
##Properties
##trol
super
##amp
##Task
##ite
##untime
##Point
##Any
ad
text
##Entity
##aint
##iled
property
valid
##ope
##Number
##nds
##Bytes
##ifier
child
float
##ql
reg
##Address
##ert
comp
Re
##Sub
content
Node
##uture
##Comm
on
Bu
##fix
##Cache
values
##uct
Sdk
##App
0x
process
##Expression
##Dec
extends
time
##pen
##View
##place
Trace
option
##Types
getClass
array
##AC
##ric
##ailed
##YPE
##Tracing
output
##Parameter
##egment
##Reg
##TracingEnabled
isAny
##ervlet
##chem
##LO
##emplate
##Header
##ttributes
##IC
isAnyTracingEnabled
Math
##Column
##Contain
##Tree
line
with
##ynch
##own
root
session
args
##iss
met
##OD
isD
getB
##Unit
substring
TraceComponent
##pos
table
##cl
##ndle
execute
##itch
##Offset
##older
##chema
##ynchron
##AX
lo
##count
##yle
##Writer
##izer
enc
##EL
Long
stream
##word
##Session
##Action
##Rule
inter
##itor
##OT
Invalid
##Page
##elper
##Options
##ueue
##econd
##rim
##QL
##mb
##Values
##Reader
##eft
##IM
##essages
##Constr
##ULT
conver
##ln
##odes
or
buf
dec
Comm
##licy
entity
##rid
##andle
##Block
##ox
dest
CON
##plit
##umer
##tom
getF
task
##ther
##ister
##Mod
Date
TYPE
##ateg
##gn
##Link
##face
##ender
##Par
##orted
##ClientException
##Match
params
first
NAME
##Loader
##azz
##Target
column
##OM
base
##ynchronized
##les
##ecur
##iles
finally
##Bean
##emp
println
delete
Boolean
##Al
##sed
##ariable
##Container
old
switch
##ren
dis
##raph
##qui
##ark
##UE
Field
##Job
##SON
##Spec
##sWith
##Default
Double
##Local
##Reference
not
synchronized
##imp
Byte
##point
##Char
##ML
##Row
##ESS
##inal
SdkClientException
ifc
##imple
##ia
tag
val
##ayout
##Part
##bserv
##Rel
##air
##xy
##ination
##load
##Valid
##ATION
##pare
##Provider
##ush
##Pl
##sh
##Param
##Image
##alend
do
No
##tin
##Callback
##ization
iterator
writer
RE
##Ref
##ping
##PT
##ectory
##isten
isEntry
##pr
getType
isEntryEnabled
##tings
##Process
##alendar
##ATE
##atri
##Dis
##atrix
Log
##Ad
##AD
##Mode
##Update
fl
EN
##Metadata
##quence
##oin
ID
src
job
##Store
json
##ell
string
util
##Helper
len
getKey
replace
clazz
isDebug
part
##Del
##Warn
other
##Position
model
##OP
gener
##IS
##Mem
by
##Execution
##AULT
##sign
##atab
##aders
##urrent
##cript
##Input
##lector
##its
##uster
##Byte
SI
pl
##EFAULT
##GER
##be
##Annotation
all
mod
##au
##FF
isDebugEnabled
##bservable
##istry
dir
##Function
##ape
##gnore
body
##Trace
connection
##Future
##Record
Supp
##Descriptor
##Params
##utt
##otal
##atabase
##Location
##EY
Ac
##Stack
##Get
##ish
http
##OU
##Operation
getE
Inter
##Work
##UM
Sib
properties
##IL
##ative
##ok
param
##tinue
act
##ole
##tml
##Order
##lar
##lear
HashMap
##utton
valueOf
load
ServiceResponse
Non
##Cl
cache
##Check
##Control
##TER
##Lock
##GroupName
SibTr
##rame
##ee
##ram
##ified
##Width
##work
##RR
##Parameters
##over
Data
##ible
##untimeException
##ud
Method
##Read
##line
continue
##Parser
##ocket
##Gener
##af
Json
##ates
##Thread
##Level
##rowable
##Enum
LOGGER
##InputStream
##Ifc
##ide
##ecurity
descri
Observable
KEY
##BLE
Config
tmp
prev
##ause
##Warnings
##illis
warn
##ched
##ket
resol
clear
Entry
##ify
##Hash
##Label
split
##Base
##parator
bytes
##rt
##Output
status
attribute
VAL
##EX
##Auth
##rapper
exit
copy
Suppress
##sp
db
Null
##ude
version
##IG
##evice
Option
hasNext
Response
rec
Unable
##utor
##Constraint
Page
date
##ECT
EX
dep
##Ret
##Server
resourceGroupName
##RL
##Channel
feature
Resource
SuppressWarnings
ref
back
options
SQL
rel
order
##dition
##Root
##ical
##con
##ission
iter
##acter
##ices
Element
##Enc
JSON
block
##imit
Throwable
uri
##Host
Ifc
##uid
##AP
##itory
##lob
##ingle
To
##Style
##Found
##Statement
##assword
##sumer
of
##OutputStream
##Act
vis
##file
##Fields
xml
Path
##Det
##Pool
##po
server
##oding
##bstr
getT
getId
exception
getProperty
##URL
##indow
##utable
##efore
##ics
org
conn
inv
##Long
##bstract
##Bound
##cept
the
##RE
##eom
parameters
initial
position
DEFAULT
header
##ped
##ss
##val
##Directory
Message
##ave
##Pan
##inding
project
URI
##esc
##Su
work
##ont
register
orig
##oke
##Ed
page
##aces
##Per
##ries
sql
temp
##Command
##mary
##Iterator
##Ids
Iterator
reader
lock
Char
##Body
auth
record
##omain
convert
##Num
component
##Dep
##ility
##Conver
top
names
Trans
##Segment
##Comp
##dentifier
run
##ustom
##TT
ele
##Http
##Exte
bean
width
##If
##Meta
channel
FI
##Interface
RuntimeException
##ymb
host
##Color
assert
parameter
getInstance
handle
##her
left
##TH
VALUE
##ale
##etwork
##apter
##itle
container
##CH
charAt
ERR
CL
##CT
Key
##Millis
##tx
api
##pc
indexOf
attr
image
##md
##Var
##ermission
##Up
##Ignore
UN
action
annotation
validate
##ake
##Remo
Messages
##AGE
##Range
##pected
##ables
##plet
doc
##ower
Local
##Settings
URL
##Variable
getString
po
Time
##oord
trace
##unn
listener
##EST
##ous
##Json
##ayer
Query
##umns
##ecked
##ymbol
##Project
Token
label
PAR
Request
IS
##Queue
##Keys
##Height
##Pattern
##egin
SE
alt
view
##AY
exist
Error
##StateException
##Servlet
##Max
##Bundle
code
##etry
##icate
##Attributes
##Layout
InputStream
##Vis
##erval
##Top
##Policy
open
##Account
##Mapping
##reen
##Document
##Create
##ABLE
commerce
##Template
##Internal
10
Parameter
##ugin
##raw
##vail
send
##checked
lang
idx
##play
##ende
##mt
##ision
##ServiceResponse
##lias
startsWith
MAX
##ations
Not
ed
##upported
##ertific
##endenc
##Is
##gress
##sc
##ASS
##ServiceResponseAsync
##Transaction
Abstract
mem
##ex
##ait
Level
##UID
DB
addAll
##ie
##Wrapper
total
trim
##Uri
compare
##Sequence
##imest
##New
##ERT
exp
an
##ERS
##ivity
##Port
##Sum
##unk
##LOW
##ulti
##EM
##ear
##sl
Property
##Prefix
matcher
##EClass
##Fl
Se
IllegalStateException
##ature
##ph
##gine
##ures
prop
right
TR
##Assign
##io
Number
##andom
##und
##ities
encode
rule
configuration
##rup
##uctor
##IgnoreCase
##Elements
##cy
##tract
##reg
As
requi
##are
##erializer
##Collection
prefix
##ntries
##wner
##System
##Atom
internal
CH
##tep
command
##sor
##Comparator
##orage
req
##imestamp
Optional
##ttach
unchecked
number
En
port
##WithServiceResponseAsync
##ater
##Doc
##Button
##11
##arset
env
failed
##IV
##ODE
##edia
##ertificate
##Extension
##Pri
resources
##Mon
##OS
##ialog
className
search
##Headers
##ick
##clude
##Description
Link
containsKey
##STAN
Buffer
##Parent
##NotFound
##que
AL
##URI
##ote
grid
StringUtils
##duct
Collections
##Resol
##imal
handler
##entic
##Ag
##Metric
##Non
##Detail
##oul
ERROR
##uage
##pan
##led
##med
##64
##ould
##cket
##Change
##mit
height
##Constraints
##rag
##Timeout
##redent
##eometry
##min
##INE
##ITY
tree
##Len
##tex
##cription
Pr
hash
equalsIgnoreCase
##PL
DE
##ifiers
##ved
##fs
##ules
##ignature
##Matrix
##Init
cms
Sc
getO
##enu
##fter
##DB
##Scope
##ZE
PROP
##uccess
##Proxy
##atas
cal
##Back
##rtif
RES
generate
##Resources
Util
apply
##SE
Arrays
Task
##ND
ProtocolMarshaller
##epar
##isteners
FOL
##acking
##Min
##ertex
##Box
##Files
Thread
##kip
##mport
atom
##rtifact
conf
##Pair
##Cur
##Qu
##IST
##MENT
##rit
##Conn
##10
ev
getResource
##ATA
##pository
##ategory
##istance
##ags
pattern
SU
##ank
constr
##chedule
Calendar
ctx
##perator
##resent
##Val
##order
am
Big
before
##Nodes
COM
##lected
##ious
##000
##NotFoundException
##eight
##mm
report
##mar
##Panel
##loy
##NotNull
locale
props
##ample
##lobal
word
##atcher
resolve
CLASS
##oly
XML
entrySet
##Integer
Out
##resh
##STANCE
link
operation
caseIfc
transform
##eparator
##inter
##aining
##Application
##eas
##12
callback
##Such
##Bag
Web
point
Commerce
##ments
##Double
##ClassName
##oop
The
##Identifier
NoSuch
visit
Sh
App
up
post
##OUR
begin
##uple
Buffered
invoke
##Return
##itions
Nonn
##Pr
##ormal
Nullable
##itive
Constants
raw
empty
##iron
##inary
FOLLOW
##First
##wt
State
jav
##etch
##IF
##SS
##oll
keys
##ipe
SQLException
##Schema
##Inv
##eek
schema
##Word
##nap
##for
##oute
getPar
Stream
##32
iv
factory
jc
op
mon
##Rep
##map
##Msg
Def
##Notification
Job
##estination
CP
##QU
##shot
##IME
push
##lish
##ironment
##eleg
INSTANCE
##Api
##ging
Reg
Nonnull
##bers
err
Met
##Day
##ayload
getX
Api
##ategy
##Us
##OW
accept
##rea
##Processor
##Socket
##inc
location
##Only
##Env
##erge
Context
Base
##rupted
##Supp
address
##Be
##river
getJ
##ORT
##2D
stop
select
insert
##imension
##Chain
##IR
##vailable
##Vector
##Last
##aster
##ire
##idget
##ome
sort
di
document
per
##nown
##01
Stat
##ORM
##ACE
SIZE
##los
Point
##ts
##Graph
template
##BagConstraints
Result
Get
##Close
stack
##Adapter
StringBuffer
##irt
second
##uto
##Feature
##Obj
use
##Registry
##Sl
##andid
getField
##oder
backtr
##Term
destination
##Converter
methodName
##oci
##dentity
##tro
##Select
##ached
##iod
##Endpoint
qu
##Args
Value
##endency
##yc
##ability
attributes
##irtual
backtracking
##entication
##napshot
getParent
segment
##ume
##ged
cp
##Desc
##iver
##old
##Search
scope
##Generator
featureID
limit
##OK
##US
##ithm
##bsol
Linked
##Current
##oordin
NOT
##DataType
##ient
##Window
Event
sum
HashSet
CONT
##IP
original
function
##gor
des
##StackTrace
PARAM
##IX
short
##istory
##jection
Simple
resp
##Write
##to
getLocal
##ta
sl
pred
getAttribute
##Xml
io
Gener
STR
javax
##ublish
##Cap
##vm
argument
##VER
##ByComparator
##EXT
##bsolute
##ookie
Function
##ailure
dst
DATA
##easure
PROPERT
##greg
getPath
Exec
timeout
Valid
decode
User
##Engine
##plete
metadata
namespace
##ting
PRO
serial
var
##rammar
##Zone
Par
fields
Entity
##Inst
##ected
##ences
Dep
join
Attribute
##Holder
##fpl
##Folder
cluster
##Module
Void
##round
newInstance
##Iter
Tree
##Idx
results
##fplib
can
Uns
COL
access
expression
##Decimal
##anged
##scape
Content
##Handle
Afplib
store
AfplibPackage
application
##ines
##mmutable
bundle
##istence
##Member
Document
web
##Space
Rep
##Permission
IF
getDefault
##CC
module
##ances
found
det
##anaged
matches
Rec
##ookup
inc
getRe
exists
##Summary
##Results
CmsResource
##ority
##iction
##gorithm
##olog
##redicate
AP
UT
PAT
##asic
##DER
Configuration
test
ATT
##Uuid
Interrupted
##formation
##Executor
##acity
##Frame
##ique
Vector
Image
##ove
##rec
parser
##Post
style
##Items
##ACK
##ared
##incip
##rch
##Bounds
##ffix
##Lower
##ersistence
Annotation
##way
##Vari
currentTime
##Pointer
control
##TE
metric
Func
reset
##rency
##Mapper
##Consumer
##sRequest
Descri
##Columns
make
##path
thread
getG
previous
PREF
Character
Connection
##rement
meta
getI
##Flow
##Condition
SC
##ested
setS
##Subs
Pl
tx
##NS
HttpServlet
ag
getRequest
level
Builder
GET
Iter
##imer
device
Failed
##flow
serviceName
##Region
##OST
##Left
##Boolean
##Dig
##PTION
Mod
Default
##issing
term
IND
password
scan
##xis
rs
##Le
Expression
proxy
##df
skip
##rigger
##Bl
getLog
##NAME
range
InterruptedException
color
##ology
Table
##Tags
##imum
##ACT
ph
##eet
##ply
##Present
##SL
##ragment
##db
##elegate
##acket
Call
##ran
getChild
binding
mark
##Declar
Server
##HT
Index
MIN
##55
tokens
isS
retval
##Strategy
##bo
##Groups
##Run
description
##ogn
Unsupported
fileName
##Rec
NO
expected
##Feat
batch
##Resolver
qPath
##Web
##ending
red
##DS
##lier
require
Del
##Exp
Locale
##PS
go
##Mark
##Interval
Properties
grammar
US
keySet
##ixed
##anguage
Ref
getCurrent
##iteral
bit
NonNull
ip
pop
##ials
extract
Text
ns
Func1
getTime
##gr
##Delete
sp
##Namespace
##impleName
main
##maining
Or
##Equ
jcas
##afe
HE
##ret
##Wh
getData
##ten
cmd
queue
##Methods
cons
##enter
##ECON
##EObject
elements
##Counter
##MetaData
Operation
pool
toArray
##annot
html
##ultip
provider
##22
transaction
16
##lease
##Cell
##riteria
day
newValue
extension
nextPage
##AIN
##Encoding
types
adap
Common
##azon
##ise
ver
##Failed
##Attr
ws
TAG
##ipher
parseInt
Internal
##Controller
items
##ervices
##incipal
ByteBuffer
##Profile
##lip
database
Group
##Prop
##ancel
findBy
Immutable
##Network
Model
##No
##Conf
##Classes
##ULL
##space
remote
##atal
##ogle
render
PROPERTY
##ict
##Struct
cs
##elf
##unnable
dig
Client
serviceCallback
##tc
##ART
SER
##Area
##Copy
##anges
notNull
##lick
printStackTrace
##rop
##ade
##Cluster
opt
##vision
Action
UTF
##ulate
##Exist
View
##Prim
IM
##JECT
EClass
##andard
Name
##mail
##Agent
ByteArray
MET
##verse
##quired
##Storage
##soci
##Optional
##20
##ycle
awt
##erson
defaultValue
##ClientExecution
script
upd
##ier
cell
title
currentTimeMillis
grammarAccess
beforeClientExecution
##Sp
Xml
statement
##Transform
##redentials
##Alias
getAll
##class
Sub
##known
getNode
Html
##Dialog
Stor
DateTime
Status
##OC
scale
Color
##Initial
##Render
##Props
TIME
##PAR
##21
merge
##ward
getText
##Ind
bound
##Relation
##Modified
##ecret
##Batch
##down
##oice
partition
package
##bm
ServiceFuture
##Assignable
fetch
##Entries
member
##eme
os
##Locale
##ateway
##PR
##Script
##ollow
##Details
##ClassLoader
##ORE
children
##NT
wrap
getUser
IFC
##Fin
##loyment
compute
##Menu
getH
unit
##Di
flush
theEObject
##Logger
##Security
getFile
##Load
spec
##Role
SH
Iterable
##ERSION
##ynt
getMax
validator
##XML
##LowerCase
getNext
##Category
##andidate
Could
##VAL
##Remote
##Password
relation
Auth
collection
formatter
nextPageLink
##Destination
show
groupId
##DD
Float
##Protocol
##Database
##Listeners
Servlet
ext
FIEL
getParameter
##istrib
EObject
##Rows
JSONObject
##ranch
normal
##Symbol
inst
headers
no
##Report
INF
ED
custom
single
##irect
endsWith
bind
cause
##lem
bucket
Create
EM
condition
##arg
##Measure
FILE
##IVE
ssl
getSimpleName
getDec
fieldName
##Single
Pre
isAssignable
##Tokens
##gle
rep
##Topic
##Cms
##ynam
##add
gridBagConstraints
##ors
##OURCE
full
frame
Order
FIN
domain
##Formatter
at
head
BY
##Information
##Progress
##ATOR
Pattern
##adi
##seException
##OUND
asList
my
im
##ges
##Open
##x3
##hs
sign
cls
##ferences
collect
##Short
Item
##ttachment
##Des
##duc
ni
wait
##Limit
##DC
##Product
##eo
##ixel
##Qual
toLowerCase
Open
##Domain
gr
##UUID
##ating
checkNotNull
OP
amazon
##rchive
STAT
LOC
##Character
cas
STRING
##iler
##UTE
##lared
getBytes
Cache
12
save
##Buf
##server
cf
##TERN
uuid
##Bar
Rem
Cannot
orderByComparator
##Stats
graph
##copy
include
getInt
ent
##Man
mode
##RIB
##Matcher
##ao
##eep
##Ph
##sTo
##utdown
expr
##ARN
reference
setValue
datas
isAssignableFrom
##Bit
##09
newLine
off
MESS
ON
Transaction
ibm
Session
Dis
BigDecimal
##aws
##IO
filename
arraycopy
##Arguments
Bean
amazonaws
##URE
##ESSION
##Widget
after
##formed
##roll
swing
tile
propertyName
##Constructor
endpoint
getMethod
##lowed
Component
##overy
us
separator
##IGHT
##Right
executor
##Red
FIELD
settings
##Expr
files
##Second
##Binding
START
Cl
rows
##chedul
##Device
VERSION
##Certificate
##ites
##ground
##Db
##ian
##Upper
getContent
##istics
GR
real
##sum
##cc
##Active
##ipeline
future
clone
jcasType
draw
Add
##Chunk
##NonNull
Registry
##cat
##MS
##ognition
##Plan
Work
actual
cap
##temp
columns
initialize
##Activity
SdkInternal
##sion
##olution
JAX
##cer
account
getAbsolute
##mbed
stmt
getStatus
Command
##Repository
##ynamic
fs
clean
##ONE
updater
100
##ship
##andl
##uce
chunk
##Edge
google
##ASE
##Track
##gex
##udit
##Sign
##Gr
##Changed
##Ins
setProperty
su
##Inf
##Month
curr
prepare
SdkInternalList
ts
##Support
fill
##nded
isTrace
parts
topic
getAnnotation
##ationException
UUID
calc
##ason
##ToString
##ANG
PREFIX
alias
##Calendar
##DateTime
Precond
##Messages
##SET
##IAL
abs
IAtom
##tra
##reshold
##Remove
JAXB
##Uns
##Operator
lv
##Vertex
getContext
##Use
active
nitro
self
##16
##Metrics
##Java
feat
##HashMap
##orization
##ens
##Memory
le
encoding
##Op
##eta
##Language
servlet
##gon
##Year
getApp
TimeUnit
##Blank
##ored
##ym
##olygon
##Step
getObject
system
##ByteArray
Recognition
Preconditions
vari
##base
##unning
storage
##oad
RecognitionException
##atalog
##Visible
##UN
##Bucket
delta
assign
adaptor
##amil
##ular
##Serializer
##Blocking
Filter
##itional
##cheme
Describe
display
SP
best
step
##ILE
##ne
##orter
v2
plugin
##ASK
##Icon
##Factor
Repos
Mo
##box
##ited
Conver
getFirst
##ived
random
##eed
##len
getN
##AIL
##eted
charset
##Owner
##ls
NUM
##ampl
non
Repository
##Partition
##ere
##PTY
button
div
fire
##Plugin
Process
##odec
distance
Ad
describe
FORM
##rie
jar
Comp
##History
##CTION
##Layer
##Rate
mapping
Application
##Required
OutputStream
uns
##ceptor
entries
##Scale
VAR
chain
LEN
Str
##Title
getColumn
0xFF
##4Package
Inv
Gr
cor
Channel
##Tx
intValue
Ifc4Package
##tas
##SC
##pha
tableName
##valu
##Points
Java
Matrix
##Down
##One
Tag
SET
##vh
escape
site
PATH
duration
##Constant
EMPTY
NULL
consumer
updateres
setC
##uf
##Rece
username
##recated
payload
owner
Form
##onical
Column
OR
rece
tags
##oordinate
##Declaration
##Gateway
Grid
AN
##ern
nodes
ds
cursor
existing
##eer
##ibility
##AND
Update
##ero
Check
lastIndex
Pair
##After
##Complet
TH
##Events
MAP
RO
##Price
##El
##den
evalu
##Pane
##UI
Rel
##LIS
##posite
END
##Subscription
##Each
##Paths
##Instances
isNot
Project
##02
##olt
invalid
region
Delete
##Variables
##Failure
Atom
arr
##adding
##SQL
Complet
##adius
##Before
##FormatException
##ACH
0f
ELE
OB
now
ind
##Exter
setText
##Bond
##aun
##Usage
ignore
##Selector
##Follow
lookup
window
##uction
##FileName
##ift
##INT
##aj
##ORY
ALL
ids
arguments
##istration
mapper
##Monitor
Security
Input
primary
##oom
flags
##amily
##aging
##change
##Scan
compareTo
Constr
CONF
requireNonNull
REQU
security
##code
##sation
descriptor
##Head
layout
##ighb
Serial
##yntax
zip
##Temp
##tf
Record
getAbsolutePath
setAttribute
##ux
##itude
TRAN
OF
FF
##clus
He
br
USER
##ottom
remaining
##ountry
##STR
##Success
##era
sequence
1000
##ICATION
##Font
change
AR
Mem
##tl
TEXT
##Split
flat
##UG
##redential
##Full
##rypt
##More
##2x3
HttpServletRequest
##istribution
##Kind
##naly
##tc1
##2x3tc1
##elope
##oud
variable
##ocator
##ased
##ableFuture
##GR
##Build
##ior
##2x3tc1Package
POST
import
CharSequence
supp
##Snapshot
pk
Ifc2x3tc1Package
0xff
Po
##elp
##OKEN
inputStream
##Timestamp
Al
weight
Utils
stats
TO
##Signature
##Rest
selected
##Codes
##ump
##Environment
##Capacity
##Site
edge
##Validator
##GTH
##ibr
notify
QU
##ural
required
NE
##18
##35
##lation
commit
##Literal
##aunch
isValid
desc
##ouse
ll
##CP
STATE
##angle
getAs
getSe
layer
ATTRIB
addres
loop
##Over
##Services
##ITH
timestamp
##Children
##Inc
##Ab
getTable
dbc
##Writ
role
isNull
counter
##AV
interval
Bit
Mon
BU
socket
##ov
##Custom
progress
JAXBElement
##Display
##aug
##Slot
##PointerException
##Seq
##cheduler
protocol
##Sql
##Tool
getSc
##jo
##Predicate
##JSON
forEach
##Algorithm
##PP
##azy
DBConstants
DAY
##irc
processException
##Validation
js
##type
Geometry
multi
NullPointerException
Graph
JC
getStart
##0000
ACC
newBuilder
inner
product
getRoot
eNS
month
imp
##losure
replaceAll
##dbc
##Import
registry
Types
##pro
ClassLoader
DIS
##card
Inet
##imiter
EPackage
Tuple
schedule
LIST
CHAR
over
pc
WID
##Route
##tore
ClassNotFoundException
subscription
Database
INT
ok
##Classifiers
constructor
Block
Ovh
ELEMENT
##AccessException
##ced
##BER
##ATED
##inglet
chars
lat
##Static
converter
LENGTH
##ingleton
core
##Weight
##ucture
##External
FINE
language
Line
##anization
Metric
##Driver
cached
ab
network
##pping
unlock
Generic
success
getEPackage
net
##Test
calendar
##gable
artifact
font
fsp
##Bits
##faces
##Rules
##ernal
##lex
##TypeEnum
FFDC
##Cre
localVar
##ersis
cancel
##ONG
ENT
bl
predicate
##cp
release
##Decl
Runnable
getWidth
pushFollow
listeners
##hav
##Html
Media
setName
MPS
and
FORMAT
##Multi
##ITE
getLast
PER
repository
ps
##Annotations
getEClassifiers
getSh
##Hex
##andlers
OUT
##Stop
Print
##ORD
FR
##aded
##any
pair
getIndex
POS
##pons
enable
##Ar
move
getIn
bond
##izable
##24
##Screen
##IZ
unm
##stit
LA4
indent
##pared
axis
##ae
##Separator
##Cor
isLog
##Float
##oles
getV
qual
Instance
##igned
##OUT
profile
Objects
##perand
messages
##Draw
OpenCms
##Tasks
##ECONDS
high
##VI
##ARY
READ
diff
LinkedList
##Available
##TTP
32
getPre
directory
dist
policy
##roid
##list
MESSAGE
getSub
##ined
ens
getMin
SAX
##Identity
##ignment
##Direct
checkArgument
##Duration
##oded
BufferedReader
Random
Variable
connect
##ducer
##sertion
execution
##edis
##Specification
##Distance
WIDTH
##Period
Remote
##Commit
geometry
##RM
ensure
##patcher
##Visitor
getMod
##Interceptor
Build
Access
setup
LA6
##Tab
lastIndexOf
year
numberOf
##TypeName
OBJECT
##tact
toBlocking
Execution
v1
getEntity
Logger
##eturn
acc
##Unique
##nalys
##Complete
constraint
##rv
##Exists
##Schedule
CRE
##ng
loader
EDEFAULT
##ITION
convertTo
##Week
##bound
##alle
##ifiable
common
getElement
##Closed
lif
##agement
##endencies
Script
##parse
td
##ins
Dec
increment
getLength
##ware
Act
Pri
Schema
##ft
cb
##Ent
##ingException
digest
##ik
subject
##ured
COMP
##OWN
available
permission
##ma
##Bus
##ALL
TRANS
lower
DELE
Matcher
##Edit
##CL
publish
addr
##ENER
##Hint
##99
##ercent
##33
##licit
##umeration
SY
suffix
##nalysis
ioe
controller
25
##quested
CmsException
##Keyword
##nsw
candidate
##Ip
eDataType
tab
Deprecated
##table
DATE
##allel
##cr
activity
cert
##Comment
##ra
Unknown
getY
##Objects
Source
shutdown
##Vi
getConnection
##80
Screen
EXT
ATTRIBUTE
##Fixed
Pdf
matrix
classLoader
##ECTION
##agn
JS
##Fragment
##RY
##Prev
##eries
media
##cessed
Multi
##iate
md
signature
##Ver
##ency
##VALID
so
span
##here
Notification
REQUEST
center
##lert
##Place
##ker
##OUNT
symbol
getHost
##ferred
##Flag
sip
fail
##Collector
MOD
WR
##Associ
##Generic
COMM
Assert
DES
getService
delegate
Collector
getHeight
##Editor
concat
##GroupId
##ism
##Errors
sq
##bserver
errors
impl
##FS
##Click
RESOURCE
ADD
##JB
dim
##Cost
HEAD
##OptionalParameter
UP
##Connect
getTarget
COLUM
global
##Assignment
##PARATOR
##Total
Search
sm
##lv
##amples
Feature
##Join
SESSION
##Cols
##Anim
##da
should
RET
getEnd
##ACHE
vertex
der
CONFIG
sig
INVALID
##Wait
getComponent
NotNull
Enum
Version
cd
##ulator
alloc
Transform
##UB
##arted
##Selection
Statement
runtime
##END
##troy
isTraceOn
##nalyz
##ointer
##OUP
##pose
encoded
BigInteger
isLoggable
##Composite
seq
ByteArrayOutputStream
transl
##Artifact
getConfig
parsed
contentType
SSL
WITH
EV
getBundle
##vile
elem
forName
##Sur
##Charset
Row
##ressed
flow
Read
ii
##bl
fr
##pted
##amb
##pings
##rieve
PARAMET
##acet
Env
wrapper
##Cons
resourceName
getSource
LA3
##Allowed
##Section
##Rect
DIR
##DK
recover
icon
methods
trigger
##13
getDescri
export
##Mask
##OF
CPDefinition
##Common
##HOD
getState
##Export
##Transport
ec
ParseException
##Span
Output
##PUT
##nect
##ery
warning
##ictionary
cookie
sent
IllegalAccessException
ap
##ifest
addChild
AUT
IMAGE
dependency
##ocus
##IDs
Parser
##net
allow
period
##Primitive
##ponses
##nnotated
HTTP
##avig
shape
monitor
where
dialog
complete
ca
JsonObject
doubleValue
CompletableFuture
##tainer
##Publish
serialize
##key
INIT
finish
STATUS
##mark
currentThread
getSession
selector
FFDCFilter
##UpperCase
rc
##ecycle
##Binary
##Dao
##OrUpdate
##Selected
INFO
##Bind
MIL
##Opt
CONTENT
##nswer
CODE
compile
##Features
Js
otherlv
SUB
Can
##RuleCall
MON
##Border
##ration
FIL
upper
##IFI
sin
##AsString
##This
FileInputStream
##Statistics
adapter
Jvm
##Auto
engine
hasMore
##losing
classes
alpha
force
processor
An
##gram
##stim
##Registration
##Bal
Certificate
COLUMN
##IENT
##sent
Short
getVersion
NODE
METHOD
##Tile
##Score
Bundle
##509
nodeList
##strap
fetchBy
##Shape
CLO
identifier
getDeclared
CONN
##itespace
##Insn
##ootstrap
24
ms
##WS
mask
##Media
##atform
need
##Upload
##KN
##HttpRequest
##Flags
Basic
##uded
verify
##ally
sync
factor
buff
##Lines
retry
configure
isN
mc
unique
methodBuilder
track
nextToken
free
##Chars
##Main
Invocation
##ersistent
te
##Infos
##Tax
##Distribution
createIfc
##anonical
FL
pan
nv
throwable
DOM
de
##IES
NumberFormatException
mid
rest
##Replace
NONE
calculate
##OB
driver
##alth
##tern
auto
##Extr
##ibrary
##TypeReference
##mbedded
Ed
##Imp
##Suffix
UI
##dir
getLong
##CON
additional
rot
##nder
Future
##Curve
##ref
score
Ag
##UD
##Global
##Delegate
bits
20
##erence
##Serial
initialValue
##patch
##ArrayList
Box
route
round
amount
SEPARATOR
##Public
##OperationException
Predicate
##tempt
##chor
##Orig
##4j
##ifiedName
##VICE
TABLE
mv
##olume
addContent
defaultCase
Start
getApplication
##olation
slot
INDEX
XA
##ATCH
##23
##Commerce
##Delay
##ives
##UMENT
points
##cluded
##ConfigurationException
mo
evt
typeName
Fl
MILLIS
##PORT
##imes
##nse
##Vars
##Accessor
hour
##nce
metrics
DESC
getError
##Members
folder
getTask
##ideo
##ReturnType
Label
##VE
##clusive
##Syntax
##Leaf
Enc
##ULE
##EE
columnName
getOr
##Tokenizer
##ierarch
##Real
##Words
##pn
##25
##Direction
cm
##CS
##aved
pending
WARN
##ayment
##uit
##erms
WS
resolved
environment
##Tracker
Dir
Ph
zz
##lap
##CK
features
Consumer
proc
##Background
mat
##Gen
##Setting
MS
##Timer
##sible
##ires
##expected
pack
##Ident
dt
getIfc
##omp
aggreg
identity
##just
exc
##urrency
##Clause
##ango
##IMIT
##Scal
regex
sib
interface
##ech
Faces
msgs
Virtual
##Sw
##Bund
filePath
Dev
##Equal
vert
sec
LONG
##achine
##Register
##Depth
ARR
##ouch
Charset
manager
##Missing
ResponseBody
Count
##LECT
projectId
gen
##ek
##ready
##Authentication
##havior
getItem
##ffect
zone
cipher
Term
##vailability
##Invocation
detail
##book
##Parts
OFF
box
##2d
##policy
bin
peek
childNode
Storage
Batch
##Req
##ABLED
GENER
##pcode
setF
##oto
##icense
INTER
HttpServletResponse
##ccur
down
origin
##ollback
submit
##ulk
##Aggreg
transport
##Ms
getLogger
##Invalid
attrs
##dr
Gray
pt
tail
##DataSource
Zip
dimension
##Utility
Part
getResponse
##Whitespace
Relation
man
section
attach
cast
##Attachment
PL
binary
##essaging
CommonTree
##Credentials
##Evalu
##Runtime
##istic
getAtom
##oordinates
##Logging
##Admin
ENC
GROUP
edit
groups
CACHE
FOR
##log
ENTITY
##Datas
##ByteBuffer
##Dependency
helper
GridBagConstraints
loc
Cluster
evaluate
##Pixel
##ById
INDArray
##ambda
cos
isDirectory
##uplic
Point2D
##Raw
##ling
##idden
##Principal
ApiException
##ants
##Arr
##ross
isPresent
Git
##ied
ServiceCallback
getDis
perform
Rect
comment
##Grid
BE
DMatrix
cc
##wn
DELETE
##dap
##Jar
##States
##Super
##eter
##atype
finder
notification
##AB
##ogram
##NumberOf
##Threshold
##ct
##acer
##cribe
Network
toUpperCase
enter
DEB
##Cursor
getCause
##Worker
getNum
retrieve
##clud
##ernel
##FilePath
##vileged
##Ops
ROOT
ann
##Tuple
login
##Payload
##TERNAL
getClient
ba
external
Standard
##Print
##15
##quare
FileOutputStream
##udio
low
one
##rient
##erged
##OptionValue
Reference
menu
depth
##vance
comparator
##struction
readLine
DEBUG
##Sets
Ins
serializer
##Loop
ARRAY
space
sample
NUMBER
##aven
##Cert
CmsXml
Mtas
email
##istogram
TRUE
Param
dot
##Off
attributeName
##Criteria
Close
getHeader
##vas
##Diff
toList
##rganization
Duration
##Finish
Template
##Lat
##icket
kind
poll
getPort
Code
Container
REC
just
##AST
fromResponse
Socket
##anos
##Person
##GN
##Primary
complet
##atterns
##rowser
upload
##Blocks
consume
category
Top
TOKEN
sorted
##Cookie
Validation
done
API
updateresource
Control
##atio
##current
DEC
Rule
cn
getEx
##def
##ryption
##ategor
resolver
MASK
##leep
##uted
getRow
##ingBox
instanceValue
##oft
##quire
On
BO
##Simple
jj
##tException
##LY
##EAR
OK
##Renderer
##14
normalize
REF
Writer
nm
##cast
##Units
##Dimension
##cene
##Seconds
MONTH
setContent
ImmutableList
##Managed
##RES
##aml
##ula
##ensor
shared
ce
##ENS
##ancer
updated
Fast
co
dat
img
##Definitions
##Permissions
criteria
##Am
FieldItem
cr
0x0
##cs
##auge
##Cal
toByteArray
##API
mp
##Components
LE
##RuntimeException
Transformer
BufferedImage
pkg
putAll
Doc
packageName
##Family
##ByName
ResultSet
authentication
15
##utom
##Throw
enabled
##anyId
Mutable
##Cause
##ful
##3D
##hip
##Actions
##Dist
bb
ss
##ators
userId
##Filters
Target
##write
##utation
##ivate
##ulation
##imeType
serverName
ARG
##oords
First
##3d
admin
##Subject
##Multip
##Prob
##StringUtil
##wo
##osition
FieldLocation
##acy
##agnost
##ores
getBoolean
neighb
BASE
getProperties
x1
relative
enum
ej
radius
prob
GL
##ols
655
Sql
rg
##arm
##UserSegment
declar
Logging
##fl
##rupt
getWork
##Labels
##UP
##Branch
##Trigger
##oriz
neg
##PLICATION
##Virtual
##Digest
##Escape
##andidates
##argin
Const
Runtime
getRecord
Back
##Sent
OrderByComparator
##cludes
##Zero
Modifier
RepositoryException
##ivery
install
copyOf
HEADER
Stack
##Mat
appId
Validate
att
##Acc
##illing
UnsupportedOperationException
T1
Constant
##URN
##Transformer
Render
isIn
##ness
##ets
getDate
EVENT
av
##aN
extra
##ORK
##erved
##Buff
scal
MODE
pw
priority
##DateFormat
##Supplier
##urable
##paredStatement
setP
Arg
bmd
##Dat
Vis
##Requests
##parable
##OutOf
e1
##vid
##HashSet
big
##oral
LinkedHashMap
bounds
operator
getCanonical
##ecurs
##roker
getChildren
##ENCE
##arl
startTime
getPersistence
##Accessible
pipeline
getMem
##astic
checkState
Match
comb
##IGN
##Extensions
history
##Utilities
##Disk
##ourn
##cedure
vector
##OrEmpty
defin
X509
lhs
##Mappings
##bose
YEAR
sv
##Transition
getJob
Di
##he
virtual
ww
workspace
LINE
##group
##Sol
async
Atomic
##ritable
##Master
isA
##Upd
End
getFormat
Layout
be
delay
pid
##Sync
Cell
validation
##Surface
Dat
##Has
##Mo
branch
Reader
65535
rev
panel
##Dev
##Sk
##ention
##Defined
SERVER
timer
##FieldName
##EncodingException
##EEnum
rhs
Collectors
addBody
##izedType
##ExecutionException
##Do
Instant
place
##Dispatcher
snapshot
##atible
character
##used
##adow
CmsStringUtil
##Addr
p1
##Scroll
##Segments
255
Db
multip
##allback
##Retry
##Ring
getAttributes
##Handlers
##tree
60
Device
associ
PO
##tp
##ipping
##UST
##Email
iss
SELECT
##Discount
##Inputs
apiVersion
##Packet
getProject
##oler
##Tick
CONSTR
##Insert
##ARD
restore
getW
##Addresses
##OUBLE
Files
Missing
##DATE
deployment
##Interfaces
flatMap
fragment
##Angle
##Digits
##Backup
isNotEmpty
##Put
##TM
Async
PATTERN
filtered
##Equals
aw
dd
##dget
##Availability
##Axis
##True
Url
reply
##ErrorException
compiler
getResult
Qu
fw
singleton
##Elem
##Connector
Address
GUI
Mal
words
currency
##ANGE
LEF
mean
algorithm
Core
##Const
INTERNAL
PrintWriter
c2
startIndex
##Login
DEL
##Revision
JSONArray
Port
LEFT
Id
##Archive
##ildcard
bottom
eval
##erceptor
deserial
Managed
##ersist
HtmlTree
##SP
##Relationship
Queue
lines
##Begin
c1
##Mgr
HttpResponse
##emplates
SAXException
T2
removed
##FromString
agent
##Structure
getDescription
millis
writeInt
##Matches
##SinglePage
me
PARAMETER
##Fr
paths
##poch
Lock
##ifecycle
getCms
getClassLoader
refresh
##Quot
##iation
##irror
##ired
##road
created
getAdd
OPTION
##Random
##Running
##Filename
getBase
##print
Join
##SinglePageAsync
getDocument
listBy
iterable
SIM
Sip
dev
##ename
##rono
ScreenConstants
##Reply
capacity
##Home
getInputStream
##sets
www
getAuth
Volt
##Final
##rift
NEW
addTo
REG
##tn
##allery
##Else
11
perm
##criber
##resentation
##Im
inters
##ONT
##ECOND
##gnored
fn
##bu
##Sec
##Connected
DOUBLE
##Lookup
principal
sleep
##RED
TRACE
tz
reverse
exchange
COLOR
Executor
replacement
getRequestContext
dataSource
##Indices
##Extractor
getRel
##ColumnName
##Skip
CmsObject
Rest
rm
##Secret
emptyList
ACTION
##ffic
##Bitmap
WARNING
getSize
xs
##riterion
##Marker
APPLICATION
##Created
events
pe
TEM
contents
generic
##ournal
o1
casFeat
##SI
##rypted
forward
master
filters
destroy
##Structural
getLocalized
ins
getTag
##adient
##Used
responses
tok
##eeper
ATTR
IAtomContainer
##Absent
Font
Range
returnType
screen
##grade
geom
seen
RIGHT
rect
tuple
##Stamp
##Days
hex
addresource
coll
##rientation
##Stage
##Sort
##PO
shift
SCH
worker
##stitution
0L
generator
angle
nvae
Coordinate
F64
##Pop
userName
ads
Module
EXCE
setString
members
InetAddress
setType
ACCESS
cat
assignment
Factory
##Tables
extr
##ARG
##Show
##umb
Proxy
getRaw
Enumeration
##Operand
##ncest
##orizont
p2
##ECK
Handler
SV
##Rout
##viders
##ilities
selection
plan
COUNT
Subs
##ategories
isBlank
##Amount
Bad
failure
Sp
##Completed
Header
##ialect
##Hour
rules
sn
si
person
##rase
##odifiable
o2
##TableName
##we
prot
seconds
##ytes
##Mult
sessionId
home
changed
userAgent
any
##lipse
answer
##Save
##URATION
##Finder
Authentication
##Supported
##etty
##Pass
setMax
pres
simple
##Br
##Parse
getEnc
##Started
MT
##umeric
anim
14
FOUND
##Observer
##ano
Strings
dataType
FLAG
cre
getOutput
getSystem
EXP
##OutOfBounds
##Authorization
##ingClass
allocate
Policy
mk
LT
##ERY
##18n
13
##aybe
##MethodException
##ivation
##Machine
hashCode
AUTH
ar
##Expi
instant
Exte
getConfiguration
basic
##Visibility
##Entities
##Center
managed
solution
GroupLayout
UNKN
##Fail
flag
##IfAbsent
getIts
##PriceList
##Padding
delimiter
##board
##SyntaxException
Inc
Malformed
##sList
seed
##ParseException
##amera
##LIC
##andsh
border
##Debug
##UCT
##cend
##undera
##stimate
Binary
setTime
##Producer
##ALSE
##LOAD
getQuery
##ids
##Counts
AS
RS
##Vert
##Gu
##Standard
##Expressions
##ACTION
Constructor
drop
##orizontal
UNKNOWN
##Country
InputStreamReader
##uplicate
FA
##fference
##Conversion
MediaType
##OutOfBoundsException
getPl
portlet
##olerance
Package
##eray
##roadcast
EXCEPTION
entityType
##cms
##PLE
##Strings
Location
bitmap
waitFor
getAl
XmlElement
##Clazz
UnsupportedEncodingException
##Connections
liferay
##Send
##enant
numRows
##Users
getParameters
##Forward
annotations
##ARK
Constraint
##licies
##store
##Bundler
pixel
##Currency
Tri
a4
G2
fix
##MB
##usters
##TargetException
isNullOrEmpty
FALSE
REM
Metadata
bar
merged
sym
Comparator
DOC
Man
gu
##PC
##ecision
nb
##ILED
nextElement
##URLConnection
##VM
##31
Prim
##Codec
FileNotFoundException
backup
Last
PUB
##iration
getSite
##Math
Geo
credentials
##ainter
sheet
reason
##icode
InvocationTargetException
##Hook
SERVICE
v201
##bar
##Dest
##Pack
##Aware
##alt
Activity
QNAME
widget
Cipher
Serializable
##aver
##Dependencies
scheme
##MethodName
clientResponse
40
##iterator
##AndGet
##posal
Rectangle
##None
direct
apache
##aged
BACK
##Fap
##Move
##orld
direction
getLocalizedMessage
##oned
exclude
CmsUUID
shard
##Normal
##rect
getter
##Specific
Dependency
##ecursive
##Actual
##Envelope
indices
Flow
Sty
##VR
pass
##Stmt
##JS
##Operations
labels
ORDER
RETURN
sk
emit
##ival
getOrCreate
optional
JMS
##Sid
##Transl
IDENT
bus
JSONException
##avigation
eGet
##iet
StringBundler
isC
BYTE
Symbol
##Threads
##ison
createOrUpdate
getCl
##Shared
definition
##types
##Indexes
##RMaj
setDefault
##Configs
peer
##Getter
Plugin
##EventListener
##BB
updateresources
##URR
t1
##AMES
##Priority
lib
##ading
ENABLED
deserialize
audit
getSuper
##FFER
##TES
Format
getUn
yy
##ich
localVarReturnType
norm
HEIGHT
cols
##Deleted
##AINT
oid
##peat
redirect
Extension
##Intent
registered
##Replic
##Runner
getGroup
getCache
oldValue
##ORMAL
##Basic
numCols
##ierarchy
##Src
##Based
Lists
##ENTER
transformer
EJB
FACT
tri
##IND
Condition
EC
##Processing
##DA
##req
visitor
Frame
holder
##ueries
Mojo
##Private
ModelNode
variant
sqrt
##Remaining
getPackage
##Other
stage
IP
ob
##Old
##Sig
lastModified
All
ACT
##opes
CONTEXT
##Override
##Big
##Changes
##LINE
CHECK
##19
OPEN
unmodifiable
##Versions
##verage
##ANT
getModel
Parse
Unexpected
addresources
##orator
Sequence
orElse
CREATE
##agnostic
##Lex
std
longValue
##Disc
catalog
##ager
Tango
certificate
square
Init
##words
seg
getResources
##Digit
cnt
##auth
##Jvm
getServer
NoSuchMethodException
quote
added
vm
declared
rb
INV
##eak
##utures
##RA
##Contact
WH
##DF
newArrayList
1024
OFFSET
conversation
jobId
plus
##now
##Organization
##Rpc
fieldType
##LOCK
##triction
##Links
modified
opencms
getLocale
SEC
##Zip
scanner
##Balancer
19
##Sample
##ense
card
outer
XMLStream
hasMoreElements
lazy
##inder
##Exit
IT
##YP
subscriptionId
##lay
##pect
removeAll
apiClient
x2
##Core
segments
##IQ
##Reason
##Without
polygon
running
getStr
FAILED
pd
ui
##Ass
##Regex
##ResultSet
##ASH
##SocketAddress
##emant
getDouble
HT
inject
##Replication
ByteArrayInputStream
##CompositeNode
sy
expi
ct
##rs
##Rot
##Tri
##semb
rv
##Records
TIMEOUT
dump
##max
##holder
XmlElementDecl
df
##Merge
##usted
dns
writeString
##STEM
unset
jdbc
##atial
##imap
##mer
##Ann
##requ
operationType
##Validate
##Unsigned
TASK
Window
sys
##Association
##ResourceException
##ween
safe
Callback
CONNECTION
outputStream
##Matching
##ICAL
##Neg
##etween
maximum
##yles
30
##rence
##cel
##Ext
resultSet
Comparable
##ketch
##HexString
DevFailed
##ATURE
pointer
##Geometry
##ENC
objects
##Encoder
##Behavior
##acro
##Indent
Store
primaryKey
##Dictionary
##fp
pow
##Pending
##Ok
components
SOURCE
Writable
dx
mult
##Sources
##abilities
##Accept
##RIPTION
getEvent
isEvent
Dimension
##go
addParameter
swap
expand
keep
readInt
##Sin
##References
##Proto
getDep
secret
##ture
##Rev
structure
Scope
Det
##Candidate
##Loc
##OLE
Persistence
Sorted
override
getReturn
LOCAL
##uxio
HOUR
##ookies
Op
rw
##CharArray
##LS
getCount
disable
##ajor
newCompositeNode
##ssue
##De
##ROL
translate
##Safe
getPage
populate
bs
##ues
writeLock
Scan
datasource
MEM
WORK
setStatus
topology
EOF
archive
##It
advance
##Deployment
CDK
constant
##Representation
Progress
##ANN
PREFER
ServletException
Custom
##OG
intent
CLIENT
##ovy
##Card
##fe
##ventory
FLO
##oration
##Nullable
##HttpClient
SEVER
##Occur
equal
##parison
localName
ci
fld
StringTokenizer
getLocation
##DT
getLabel
Gu
getCode
Tile
##Checker
##mission
##Clean
##Nanos
##High
##verrid
FAIL
packet
##oneNumber
##ensity
addComponent
##Append
Cor
car
##SH
##rees
##ableAl
##idence
rem
FileSystem
getParam
FE
Single
gc
poly
##Break
printf
tokenizer
##ALE
seek
EList
PUT
##ool
##IE
writeObject
##Than
BYTES
dynamic
addListener
##Delta
sol
##kt
##arshal
##Performed
dayOf
Us
##So
##30
Bound
EQU
scroll
dispatch
IBond
retVal
##Configurations
##Added
##Launch
##Native
##LeafNode
paint
repo
##Ratio
##ITS
Callable
##Completion
##ViableAl
##Hub
s1
##eighb
##Include
getPart
NoViableAl
dataset
##Install
FILTER
##ntil
##AccountName
##Animation
NoViableAltException
##Painter
ENUM
##Locator
getPro
##Book
So
##nalyzer
collector
getOffset
setM
MTAS
threshold
TreeMap
Sw
setData
##Preferences
companyId
##Updated
##andshake
##Notify
##Shard
##tf8
##sv
##Mirror
##Percent
getRemote
##eeded
Assign
##ffective
PORT
SEG
mkdir
##jected
getMain
itr
getMap
isSet
##ModelElement
jsonObject
##Management
TIM
##ka
##pend
##ht
##iterals
##inality
propName
Segment
getBy
##Ready
editor
##Note
variables
##Drawable
tick
##beat
##active
clientId
ord
anchor
lb
pm
##CR
##PER
acceptLanguage
##ium
EXPR
##Sorted
requested
REL
Temp
mg
##Persistence
##ApiException
##Wrap
##Sheet
##TreeNode
pEntity
##VEL
##Ctx
getBlock
getOwner
##TYPE
##Preference
##omer
isArray
##artbeat
Meta
CONSTRAINT
Artifact
Var
cx
gl
##Paint
cclass
##Roles
##lecule
parseLong
##Workspace
##QualifiedName
CS
##bed
##Attach
setEnabled
##Ev
##roovy
groupName
##ircuit
fixed
y1
##Div
##WORD
setId
##ixin
##AndSet
PI
dy
pAdd
##orary
##icator
cfg
##asel
Intent
##ErrorCode
LA2
##Flush
##lab
##otype
getBean
missing
rpc
##teps
##econds
isNotBlank
soap
NORMAL
##live
##ISS
##Extended
##FailedException
##Pred
Argument
WE
jp
##files
##Asset
##Edges
General
##erred
##XY
Chain
author
36
##ii
##alf
##leet
##adoop
##Terminal
MAN
generated
##umulator
##Drop
Is
nested
mapped
##etter
addElement
getClassName
##Pairs
##Invoke
sd
##Lab
getNumberOf
OAuth
Reflection
pAddParam
OW
##Where
##POS
##Transfer
MSG
jvm
getTotal
AB
support
##requency
help
pad
##Arn
FLOAT
cpDefinition
BUFFER
##AlgorithmException
codec
##inate
##ench
##ooter
utils
accountName
kernel
booleanValue
getFull
logp
Per
sim
##orer
PROJECT
##isor
##ysical
##Health
annotationType
Vertex
##uff
StringUtil
usage
##Go
then
allowed
##aring
##oss
##Redirect
CR
##Alignment
##85
##Gap
##esh
##OTE
zoom
##ChangeListener
Base64
fast
WRITE
##Writable
##Instant
asset
##OrPath
versionId
rank
##Side
getIdentifier
Injection
##ampa
disc
caller
##ecess
##ooser
##ridge
##register
##Resolution
##Iterable
##ncestor
##cd
errorMessage
##Enable
ByteString
AND
##ases
##izes
XM
vault
##Facet
##wrap
getImage
##Creator
##Since
addAttribute
Environment
css
used
getNamespace
##Chart
##AGES
NoSuchAlgorithmException
normalized
endIndex
PAGE
##Patch
CENTER
t2
##mx
##Push
SCHEM
BAS
##Bottom
getElements
baos
tran
SimpleDateFormat
Spec
TOP
download
##iness
##ws
##Parallel
ASS
credential
sources
##Cast
##17
##stall
isL
SUCC
completed
200
candidates
syn
##ingMode
edges
##ismatch
sentence
Operator
gauge
##AsStream
##Decoder
tasks
wrapped
SECONDS
inputs
##Find
##Extra
##lementation
OPER
##Der
##loor
PROC
For
LAST
Io
Route
SECOND
##manager
readObject
##position
##Jobs
BAD
SEVERE
Ass
##Catalog
##icip
##IOException
DMatrixRMaj
##ENSION
embedded
##Sib
SING
##Free
entities
Names
vars
##PLAY
SHORT
nextInt
PROT
##Execute
deriv
##aming
##pliterator
SVG
BR
##Setter
supported
##value
##rog
##icro
##ndi
##ListItem
Pure
##Library
##idx
OUTPUT
##come
##etric
##ingHint
accessToken
##Deserializer
Bitmap
EQUAL
##sException
adjust
##Numbers
getFirstChild
##lp
QueryUtil
Mode
##icle
ParameterizedType
isEventEnabled
##aseline
StringWriter
em
##Instruction
##Encoded
##Bindings
Post
UPDATE
##ampaign
cud
getInput
strategy
##UTION
##Recovery
days
nano
tf
##paces
##Buffers
valueType
reduce
newLeafNode
##Release
toCharArray
EEnum
Interval
##ITLE
HttpRequest
ep
sink
##ronology
##Characters
LoggingUtil
Run
##Fetch
##Credential
Counter
##dle
##Poly
lex
literal
##eded
##Checksum
##ensitive
Member
QUERY
##GB
getTitle
Aggreg
billing
tolerance
##Radius
##TED
##RIPT
##iationException
##Dynamic
##Criterion
##Generated
##Attrs
SM
closed
##Descr
LOCK
SINGLE
REST
fv
##egr
##mediate
decoded
##Written
KN
##sal
##lr
##areh
##Quiet
##ODING
##riend
##ongo
country
nd
getFormatted
Evalu
DataSource
setAccessible
Jar
fine
httpClient
alert
rout
##egration
##pring
Style
nodeId
SUCCESS
jPanel
##Injection
background
ApiResponse
Closeable
BL
Load
services
##obuf
Bind
##oming
##Targets
construct
##Variant
##PriceEntry
bulk
rollback
##Lib
##Dto
CWS
Uri
s2
pi
##index
##OrEnum
RULE
##ME
trust
DISPLAY
##Cmd
##inger
setRequest
##Policies
##Scheme
afterParser
await
nn
##ai
##http
getID
extended
##Reporter
SPEC
##Previous
HTML
setter
##Solution
getView
##OrEnumRuleCall
afterParserOrEnumRuleCall
JOB
MULT
##gs
getU
IOUtils
##MenuItem
##Compiler
##olling
Named
Validator
##ARGET
DOCUMENT
##IQUE
ignored
zero
##aus
PROPERTIES
##ayers
##FieldSeq
Provider
eventType
##cen
CmsProperty
##EFIN
##IfNot
FINDER
##MD
##86
chart
##Shutdown
##Boundary
cent
##mise
##BEL
addProperty
##Compare
##Checkpoint
verbose
that
##ncy
BLOCK
##Bi
##Pipeline
##OVE
transition
##anode
blocks
Select
##gers
##Needed
##Relative
serialized
##Initialized
permissions
XPath
##Ranges
Protocol
Supplier
Primitive
##IB
##v6
##lev
getUrl
Edge
Lazy
PACK
##Co
isInfo
taskId
marker
##head
##endent
##Exceptions
##Patterns
##ERO
getLine
##Beans
bi
##Polygon
##Tail
interceptor
numer
##lied
##ipient
##Removed
modifiers
loadClass
RESULT
##Receiver
##Scanner
GENERIC
##Help
addStatement
##Material
isInfoEnabled
ring
##igration
Mult
e2
was
##Attempt
##REAM
MessageFormat
getDeclar
MPSString
AV
##Focus
getToken
mpx
Up
offer
##Estimate
INS
workflow
##arehouse
Opcode
padding
##3f
##Scaling
##Dot
##INK
hostname
##Increment
##ront
TaskField
rgb
##Watch
##etic
##istor
getJava
rd
getEntry
LocalDate
##IFIED
Endpoint
Attributes
PASS
##yper
getK
conv
sender
saved
##IFIER
named
memory
mail
##ingType
altern
##Locked
InetSocketAddress
httpRequest
MojoExecutionException
getEd
PreparedStatement
getModifiers
rad
##Sink
##oreign
##ORIZ
##Contents
getDisplay
Bi
processed
##DBC
MILLISECONDS
MM
##Cover
##erve
rever
disk
getParameterTypes
IndexOutOfBoundsException
cleanup
##ircle
getTransaction
toHexString
keyStore
##ulated
##verity
##ounded
##Positions
summary
Border
bc
cmp
##GIN
toJson
recon
unknown
PRE
RESP
FS
##InMillis
JsonNode
##Unset
CSS
Sl
INFIN
fp
##Analysis
getSchema
##TextField
##Offsets
##connect
rotate
Host
##Low
isEnabled
train
##antity
DBID
##estion
databaseName
##Tmp
ENCODING
mb
vec
##Face
##Named
##Into
beanName
##Atoms
AC
Prc
##zure
##Share
okhttp
PREFERRED
Beta
h2
Pool
##75
setH
Typed
invocation
##ParserRuleCall
Ext
APP
Memory
dao
##pol
##MBean
##quires
##ERM
##Dirs
GVR
##ReadOnly
##Dataset
unregister
##Quietly
es
##Cycle
##ands
Expected
its
##SSL
##Throwable
FACTORY
##Rq
getList
Privileged
Timestamp
attachment
##atic
##INATION
primit
##ContentType
##ODES
setUser
##Warning
UNIQUE
Audit
##66
##Classpath
##Encryption
##PING
##Descriptors
Converter
SD
Chrono
##icker
getAddress
TARGET
launch
##Peer
##oth
columnIndex
squareup
FileUtils
Timeout
Bytes
MATCH
Schedule
getChannel
tool
canvas
X509Certificate
##OTATION
Descriptor
getTableName
##Origin
ER
TITLE
scheduler
tp
getValues
Plan
instances
Closure
canonical
NAMES
dom
strip
##Compat
InstantiationException
Return
Signature
##Audit
getServlet
##UTF
##forcer
##rypto
CmsXmlContent
##GE
##ableType
STOP
connector
##HttpInfo
ra
##item
##Partitions
##StoreException
RemoteException
##Encode
Dynamic
LIMIT
book
##FileSystem
##ElementType
##ITER
##Appender
ZERO
##CD
ByteBuf
Timer
##time
CmsContainer
0x7
classpath
##ResourceInner
SecurityException
Role
native
tm
attrName
CLOSE
##FACE
##IOR
matched
##Registered
##Streams
TypeToken
##READ
##84
##Shipping
##IsSet
##AMP
##amodel
pn
week
standard
##NextSinglePageAsync
HAND
IR
##lide
typed
entityClass
##lectr
Assignment
##ones
getSrv
##Reduce
##NoneMatch
Polygon
union
##Detector
##regor
##ike
coords
##WT
##ecure
##irm
digit
Permission
VIS
##ilt
##Portlet
##Existing
##cpDate
##width
##Lists
Found
##Chooser
authorization
NS
##endor
getPrim
getShort
JAV
injection
setHeader
##EEK
android
eUnset
##icon
##Bracket
primitive
ONE
##Wish
appendChild
getLeft
paramName
receiver
ANN
CO
CF
Hashtable
REFER
##nowled
getStyle
getPri
metaData
##anit
PUBLIC
64
Datas
HttpMethod
ONLY
DESCRIPTION
TEMPL
##Providers
##BaseUrl
##Stroke
##mbedd
anno
Jsp
faces
##aterm
##cenari
##34
##alled
setColor
minimum
relationship
Associ
##Times
Stop
SHA
mkdirs
##Series
##ResultInner
getAd
getDatabase
##args
Graphics
indexes
##Refresh
recovery
Matrix4
##LISH
getModule
details
##regorian
##loader
createModelElement
getRootPath
Red
##light
byteArray
readLock
plain
atoms
users
DD
##IDE
parseBoolean
propertyValue
compos
##Sim
ifNoneMatch
INPUT
asString
PROCESS
##atermark
txt
expect
##Samples
targetClass
deleted
18
##ResponseInner
executeUpdate
Assertion
##gestion
Scheduler
Xbase
jedis
getSuperclass
getPoint
keyword
##NotificationImpl
Domain
##Trust
HttpURLConnection
Register
DIRECT
50
ENotificationImpl
##ooled
ass
##GROUND
##TING
##DataSet
define
statusCode
TimeZone
17
Write
i1
listFiles
DataSet
eq
##Scene
getPosition
##ManagerFactory
ident
##less
##ilation
getApi
##Author
Serialization
Partition
sep
##ENAME
blockSize
maybe
rawtypes
receive
Soy
##Volume
Rece
##OLEAN
##NC
func
##lems
##ational
##rou
##Maps
##Epoch
##ubs
Concurrent
findAll
tagName
Copy
##Cancel
ARGUMENT
getReturnType
Namespace
s3
##Feed
setParent
createNew
##oker
Word
pur
patch
##izers
##ValuePair
cloud
##Functions
##ServletRequest
RESPON
Wh
floor
##Me
##TS
##Models
modify
##oted
getFrom
Mark
eSet
addPost
appName
##liance
URISyntaxException
SYSTEM
Jms
runnable
unwrap
Global
dr
pRq
##axJob
arg0
##Delimiter
LinkedHashSet
EL
New
pin
setLength
##Urls
##Containers
BOOLEAN
##Tier
returnValue
protobuf
putIfAbsent
##ITIVE
##ANCE
iFieldSeq
##PK
##Neighb
isInstance
getDestination
##ectories
##enticated
USE
##Deg
SIGN
envelope
servletContext
Test
beta
##Warehouse
##trl
isFile
Initial
Public
##Exchange
partial
license
##inator
##TypeInfo
SIResourceException
bytesRead
TreeSet
Cookie
changes
dateTime
GitLab
##zone
##Margin
inf
##tinu
##Indicator
##ipp
##afka
invalidate
##Same
getColor
##ATIVE
##emantic
Go
eIsSet
##Base64
DAT
POL
blob
##vserver
##oring
getOut
getReference
NodeList
##phab
RED
divide
HOST
Put
b1
addAction
multiply
eclipse
##256
INFINITY
percent
getAction
endTime
slice
Menu
closure
getFilter
##tlas
getCanonicalName
CALL
getCommand
##Notation
Deployment
FEATURE
Multip
nz
##hook
revision
proto
already
##psim
getResourceAsStream
Cur
OVER
##Ln
##link
##aft
ActionEvent
##pcodes
SPACE
Listener
##MT
##RESS
parallel
Destination
Span
writeTo
adapt
Cloud
tracker
NON
Secret
i2
matching
##tempts
Atlas
##iff
##Terms
CommandLine
LEVEL
##PAT
##rools
##crimin
##Orm
Bpsim
##iability
visible
PARENT
##cenario
Ast
handlers
mT
mtas
##pack
##arded
setB
isAnnotation
##Updates
##Js
setI
##ServiceInterface
##White
##Light
##Modifier
##Locations
Options
##Hosts
parameterTypes
actions
ordinal
EXPRESSION
getExpression
setVisible
##Enforcer
keyArea
##strument
Resol
getBound
GrayF
flip
resourceId
EXTENSION
isNaN
Am
H2
nodeName
interfaces
##Quote
##Templates
getConstructor
##cent
LABEL
BpsimPackage
##Cached
##Modules
##andra
getFormattedMessage
##IA
##Reset
getDimension
##IFICATION
FRAME
geo
xpath
##assandra
addField
##tenance
AD
area
video
SIMP
##Payment
getHttp
##rease
adj
cuda
##Ptr
TRI
getUri
activate
internalRequest
ASC
JVM
XSL
##eground
strings
JMSException
1L
EDataType
bootstrap
fos
##sFor
setA
##Tran
ValueEnforcer
##clusion
##URRENT
fc
pb
##88
##Geom
SIB
Opcodes
##relation
getTimestamp
##Packages
dm
##IBLE
##inated
ptr
##Sip
##Pars
##AF
example
##Setup
ejb
FUN
Pointer
##Combo
Cre
##iom
##ons
currentNode
admanager
##PrimaryKey
a5
fis
##off
##CM
##onym
##IAS
##Modification
##Charsets
Directory
nanoTime
Sparse
look
writ
##Coordinate
aggregate
##DAO
terms
##BACK
getTree
##Slash
hi
ix
##Choice
Expr
Comms
getRight
DER
##Lambda
##Can
##PA
getStack
##ResourceGroup
##Shift
##Checked
##Qualifier
AT
vals
##dl
##REEN
##ToRemove
##avail
##iki
##names
##ose
##URLException
organization
nls
ServiceException
##Conditions
checkFor
encoder
##OURC
rate
##PACE
##inite
getOrder
getRuntime
##Backend
isTraceEnabled
##Received
cross
kw
persistence
##MX
##acted
##istency
This
transfer
fromIndex
##NotificationRequired
##Defs
INTE
pref
##ConnectionFactory
urls
getTypeName
##FFIX
orderBy
PART
##ilar
##Reserved
##engis
##emon
precision
Change
converted
opengis
grant
##going
Sort
##eigh
getStream
parseDouble
##oneRegion
subscribe
deploy
##Many
##ingerprint
TEMPLATE
##phabet
m2
##Hierarchy
getInternal
Account
##Detection
doclet
Subscription
annotated
autom
getNew
substitution
targetType
renderer
##defined
##ANNEL
MAIN
eNotificationRequired
##77
statistics
##ivot
##Sibling
MARK
bd
##ycler
MINUTE
getStatusCode
manifest
##available
operand
tv
##Until
##Translation
##Views
dependencies
##LastModified
Report
CmsResourceFilter
Topic
roles
##Pull
##NextWithServiceResponseAsync
##unnel
moveTo
WEB
ls
vc
##UTES
weights
RESPONSE
y2
##heet
##uggestion
ErrorCode
extensions
black
DOT
ocpDate
##Requested
setConstraint
0x00
reportError
##Images
##egacy
VALID
received
dimensions
coordinates
##Under
##ocker
ClassInfo
##InstanceId
MalformedURLException
##umed
replic
##Download
coreType
StandardCharsets
ITEM
dc
RUN
b2
cli
locator
own
##node
stored
contact
##Preferred
##PoolSize
##Lifecycle
##NER
executorService
##Placement
##Fraction
nt
putInt
getCustom
##Switch
##use
##Perm
FieldInfo
##Phase
hint
Shared
##VED
getVariable
##Topology
SUCH
SUFFIX
##Initializer
DO
Redis
##90
##icates
setCurrent
getLink
CONTROL
hs
##BE
##plorer
UIComponent
Sync
##aker
FacesContext
##icipant
##nowledge
##apsed
##Trail
getAnd
buffered
INVOK
##rouped
interrupt
##Deploy
imag
Import
##tend
targets
entityId
##Resolved
##Graphics
ExecutionException
Zone
srv
##Cat
##ipment
##Shadow
##riendly
##iator
budget
Des
Maven
gv
getContainer
unused
possible
elementName
accessor
getMember
apiKey
casFeatCode
setState
##FieldType
writeAttribute
https
##Grant
DEST
##Expected
##eloc
Ar
JLabel
##QName
##ntlr
isPrimitive
##ResourceBundle
##Privileged
##Rad
##rosp
getDb
TypeElement
ruleX
MP
hm
##anded
cont
Unit
##Delivery
##FFFF
EDIT
##Expired
Currency
Qual
Composite
Literals
queryString
billingAccount
##GL
##Histogram
##adoc
##BufferSize
##Workflow
##InProgress
mut
##queue
compareAndSet
txn
resourceType
DateFormat
BetaApi
##Far
##Css
##ENDING
FAILURE
sf
##Example
##Contract
##RequestId
logging
##HTML
clock
ras
##etion
SDVariable
MED
sus
training
beginCreate
DTM
Widget
##chase
##Texture
CHANNEL
Der
fd
##OPE
##TP
codePoint
bucketName
##alance
##Cloud
##Conversation
kv
m11
##ely
INITIAL
BIT
afp
##ECTED
##Gradient
##Finished
dict
##Fire
##agraph
##jector
addColumn
##unct
##Already
##Invoice
getParentFile
##The
TypeDesc
contentLength
records
##Manifest
Linear
bad
##zip
##umm
minute
DEV
Sm
feed
##Electr
##inx
getSymbol
STREAM
##REE
##NotificationTemplate
mse
##ple
formatted
minutes
##ToAdd
Mapping
executeQuery
getFeature
conditions
lazyGet
Attr
Drools
jsp
##pus
##WithHttpInfo
Alignment
getSelected
##UserSegmentEntry
26
facet
##Alive
##CLUD
BIG
a1
mimeType
##DN
Tracing
photo
LOCATION
FULL
modules
working
##crete
XMLStreamException
##icted
theta
##acle
addHeader
fmt
##isted
##TypeEClass
##oose
##Unm
NoSuchCP
##ExecutorService
Conversion
External
persist
ur
##Original
WEEK
a2
##Vs
##ClassInfo
resourcePath
##lyph
##OLD
WebSocket
ty
setD
##OrWhitespace
NEXT
##Minutes
##ynth
##elocity
lambda
getRef
when
den
href
parentNode
##maries
jarFile
obtain
vaultBaseUrl
##atory
##Membership
Temporal
##UAL
getExecution
getDel
MPSConstants
composite
times
##Fix
##omme
##WithHeaders
bufferSize
ResourceBundle
##quent
Moz
middle
##Ax
##agram
setKey
##Thing
Prev
Debug
zk
##ears
##CA
##Ticket
##Queries
HttpClient
getOrig
##OrWhitespaceOnly
world
##Typed
closeQuietly
fromJson
decimal
Selector
Try
##day
ClassNode
##Transformation
##Linked
qualifier
INode
m00
xa
##LER
##ADING
EXEC
##Complex
channels
STATIC
##ingHints
TYP
j2
klass
prov
checksum
##Slice
rename
##hance
##essagingEngine
##fficient
Paged
VIE
wave
ServiceResponseWithHeaders
SL
li
##Pipe
STY
##TagName
##Declared
family
##Sizes
##Modifiers
##enchmark
aa
known
##Closure
getMetadata
getInteger
PRIOR
##posed
expanded
##vert
0x80
ENTER
paramTypes
MBean
##Soft
##Exclusive
##app
setParameter
CmsV
##ForParent
##ISH
Subject
d2
##dc
Ws
getActual
isStatic
##Using
OperationStatus
nc
rx
setLayout
operations
##criminator
Mozu
Kind
##Describe
beanClass
determ
JDBC
##XA
##Comb
##iven
singletonList
remain
##Mail
##Adjust
ImmutableMap
##Phrase
XAException
facesContext
AssertionError
mt
##Now
##Restriction
##plan
attempt
supplier
carry
series
##Fac
##qn
##arr
##ffff
privateKey
errorCode
objectName
ADDRESS
intersect
MozuUrl
absolute
pat
TERM
##Scheduler
##mis
##Fs
##gt
##Net
startDate
##PropertyName
##ldr
outputFile
##Disabled
jobName
Executable
IGN
##PH
baseUrl
dispose
ofNullable
PROV
addPostParam
isAnnotationPresent
##Ack
##Plus
getTemplate
ANNOTATION
readResource
rootNode
ALLOW
eNotify
UNIT
scheduled
hours
vertices
RECORD
##PATH
Root
setInt
getDuration
##tended
Insets
broker
ic
pReq
rand
recursive
##eras
SCOPE
OWL
PRIORITY
##OptionRel
FacesConfig
##Macro
##03
resize
##Procedure
##UserSegmentRel
##num
getCluster
uid
##d4j
##PRI
producer
##BeanName
VOL
tb
##Browser
finderCache
Auto
BOT
clip
take
ME
kundera
##itr
##Fit
cacheKey
EXIST
Plain
##Quotes
isH
ENG
getJSON
desired
spe
##ided
##roug
##ocab
fore
##Scheduled
fraction
REFERENCE
CU
##ital
##Workplace
cacheName
UNSET
LA61
Nd4j
nav
setR
##BuilderFactory
getBody
ResourceField
JAVA
VIEW
aClass
projection
Cons
##ARE
Tuple2
##Creation
sax
##Fill
##Numeric
##Zoom
##ThreadPool
CLOS
DS
Empty
##OfWeek
##Compound
##rough
At
console
##Evaluation
hit
##Vec
getAccess
setField
acl
base64
TransformerException
each
vi
##Exact
##uent
expiration
##Minimum
##PPORT
OPERATION
PASSWORD
##Cipher
##search
##REA
VARI
QName
##EP
getExtension
fieldValue
##ClickListener
##Multiple
INTEGER
Identity
##no
##Dump
setError
Install
offsets
##inct
v2018
##ummy
Day
Identifier
NaN
Snapshot
##MF
getSt
##Training
##ashboard
##DefinitionInner
##Alpha
##preter
commerceOrder
##Quick
GrayF32
m10
two
##SB
encrypted
##JobRequest
##Evaluator
##size
##pred
##Two
Extended
ack
byteBuffer
128
leaf
issue
##Jsp
##Shell
PACKAGE
ldap
##Pin
##eros
##Formula
##Symbols
spaceId
Min
##GroupRequest
##Loaded
getPrimary
##Own
##Broker
##mpt
fromString
##Apply
rootPath
getDeclaringClass
SDK
##Pres
getOptions
ifcRel
##IRED
reporter
##aversal
m01
pp
##rong
getOutputStream
##Popup
gap
ranges
##StringBuilder
##Acce
##Helpers
PdfName
observ
##1D
##Concept
setStart
##Longs
bitPos
256
##Replacement
##itemap
31
AF
cost
getCh
##anagers
realm
neighbor
tw
CHANGE
Backup
##Solr
createModelElementForParent
note
unc
##hape
##Known
Settings
RandomVariable
El
##kins
##KEY
##Hand
##ryRun
formula
onError
##CheckBox
PrintStream
constraints
Tw
dn
ff
##Coord
integer
isError
##pressRoute
heap
pageSize
##Commands
##RESH
analysis
##26
getByte
##aries
##Inventory
tra
##Possible
focus
##by
##Age
##ElementException
CmsSearch
LA60
##Runnable
##Formats
attributeValue
PROXY
Portlet
##Multimap
keyValue
SIErrorException
##AvailabilityEstimate
Weak
##view
##TON
##40
Authorization
Helper
audio
##Categories
##Gallery
getGeneric
newNode
##izing
##Station
addMethod
##arning
cleaned
##BeforeCall
DT
lon
tip
volume
##Os
##Tst
##info
trunc
##SuccessResponse
##enkins
##ubSub
rewrite
MAPPING
INTERVAL
SK
bp
persistent
##Jav
##idual
prepareStatement
commons
##ValidateBeforeCall
Case
Safe
measure
##BC
##Restore
COMPLE
projectIdOrPath
Binding
Person
Rpc
##Clock
##Inclusive
setting
rowKey
##Refs
##herited
##ndiName
##Sender
##pu
##Coordinates
getSegment
units
projectName
pageContext
##ESTAMP
##Plugins
small
Draw
WIND
cy
med
##Between
##inner
##orrect
getURI
##InfoList
metaModel
JSType
RenderingHints
sr
##UES
##egative
buckets
Bug
annot
getException
getKind
##icated
##ARL
##Wildcard
##Pages
throwFeat
##ToBe
##Classifier
##Formal
##Username
compact
ifcStructural
CommerceOrder
replication
featOk
throwFeatMissing
featOkTst
disabled
##TTOKEN
##Spans
##Receive
##Identifiers
One
dup
##vere
subtract
decoder
exceptions
drawable
##POINT
##Vpn
NEG
##Skipped
Management
Native
fallback
xy
getMethods
##ather
##ertificates
Shape
StrUtil
##Translator
##amel
stub
##Responses
##Decode
##overed
##Levels
##Slots
##TypeEnumEEnum
##Sentence
histogram
vp
##Dom
##Done
##Mutable
isTrue
##Unknown
csv
buffers
##ompatible
DELIMIT
mol
##Nav
##itter
LOW
partitions
MessageDigest
##OCOL
##Drawer
PARAMETERS
Retry
mi
componentType
BufferedWriter
mac
##Vpc
##COM
##arge
##reater
##NodeType
##BoundingBox
ImmutableSet
Worker
Jcr
kam
##ntology
##ality
##InBytes
ObjectInputStream
##ystr
##tection
##conf
Scriptable
art
##FORM
getParams
arg1
##EventType
##Channels
Archive
crc
maven
ul
##allen
setOutput
isClosed
##ERE
##ariant
##visioning
rotation
##cing
##java
##Spe
##alc
##awr
FROM
BEAN
T3
px
##aim
##Fleet
##trib
quot
CREATED
Driver
patterns
##Idle
health
subscriber
##QueryParams
atomContainer
Conversation
pipe
writeE
shadow
Utility
FINISH
getContextClassLoader
##havi
PH
Rew
##Fast
getProtocol
started
rowIndex
##TraceElement
##Statements
Period
observer
##iment
##Ap
setTarget
##isf
##Special
##JsonObject
packages
getStructure
lp
##Fault
##Pid
##gest
##36
##etary
##RequestContext
responseFields
getDay
##andling
##Animator
xid
##buf
##Spi
##Kit
##ATEG
WebApp
##etime
##ARCH
configFile
##Directories
pRqVs
cw
deep
nf
##Utf8
##LOB
##ILD
synpred
ie
##currency
##Illegal
bug
Prob
checkpoint
projects
##ReturnValue
##IFIC
Anim
Agent
NAN
##Lang
##poration
##4J
getProxy
##KeySpec
##Clusters
DataType
keyspace
phase
##Design
finished
PagedList
jax
##ails
##Positive
##Callable
visited
FUNCTION
48
Mat
pars
##wg
ejs
combined
subList
##Theme
HttpStatus
##SocketFactory
Encoding
relativePath
TT
math
##sBy
elapsed
##ELINE
sendMessage
Datatype
##ITERAL
Measure
Position
##yy
infl
requestId
methodNames
maxSize
##Calc
RANGE
analyz
major
##Absolute
getStackTrace
getWeb
##Anchor
KeyStore
##AccountId
Static
##Arns
intersection
LANG
Ldap
gson
tenant
##jax
##37
batchSize
##Lng
##Alert
##Program
##Arrays
getArtifact
##Inverse
compressed
UNS
getFieldName
28
COR
Layer
git
ks
tt
##SER
getProcess
##otope
connections
CmsResourceType
##Pt
TRANSACTION
##Preview
Google
CD
##39
##Activation
##Convert
##Aliases
NEX
Sk
cred
m1
ObjectOutputStream
##ucket
nodeType
RequestBuilder
DBException
ast
same
##Binder
states
workUnit
detect
getNextToken
Scheduled
gvr
WAS
##Orientation
##Watcher
setContext
addOption
##ValueType
##imited
##Force
Chunk
getMon
##onedDateTime
LINK
##data
##IZE
##rev
getLanguage
##AndNext
##Allow
RESOL
##losest
PROTOCOL
CWSIP
000
21
cv
##watch
getUnique
appender
##IDD
doPrivileged
##Qualified
COMMA
nl
##quences
##Reaction
loaded
##Fully
CORE
##Sitemap
##Hy
getActive
excluded
##Heap
getFunction
##Defaults
##Memo
commandLine
##Tools
##Anno
Bus
MD
are
getRead
##ised
##andatory
##Logs
##Sessions
##asticsearch
BOUND
##Unc
##IMAL
##ierarchical
gs
##AIT
##KeyStore
compress
##ItemStream
entityMetadata
alluxio
##slt
SCHEMA
substitutionHead
ICON
getColumns
##ManagerException
##eeName
getScreen
CM
mm
xen
putString
endDate
UND
gridx
ConfigurationKeys
signal
PERM
##IZED
##urchase
##OfDay
0x1
positions
ZipEntry
SortedSet
STYLE
Bits
DR
##Video
styles
isP
indexName
currentValue
##Buffered
streamId
links
getComponentType
EFap
IC
Sarl
xtext
##Ssl
##Profiles
createE
getFont
parameterized
##FeatureCall
##Hours
und
##RequestData
enclosing
decom
##lickr
Size
##Picker
platform
##Compatible
DEP
digits
##Quality
##LD
##jb
newName
##Enumeration
##ATER
##avor
encrypt
##Weights
getDescriptor
molecule
DRL
Face
##Dim
toURI
logical
getSecond
##Partial
##HashCode
Processor
MODEL
##Publisher
Button
tables
Product
hy
##com
getLock
##prise
getPrefix
JPanel
##label
getDomain
##IVED
UTF8
Structure
eps
##Watermark
##Abstract
md5
F32
##OID
##Camera
##enticate
getCell
scores
play
##mitter
##Optim
##allenge
Trigger
##Ns
##frame
##amma
##ToIndex
getSecurity
getPr
readValue
Chart
building
findFirst
lineNumber
httpResponse
negative
Rewrite
sur
##Keeper
withParam
ApiSuccessResponse
Direction
##regorianCalendar
PrevAndNext
DELIMITER
My
##edObject
formatUrl
varName
##USTOM
CAP
m21
REPL
explicit
caseIfcObject
reversed
x0
##Sparse
##Coords
reserved
##Additional
gridy
hasText
parameterName
implement
pReqVars
Dialog
cannot
dfs
##Pay
##esource
getNumber
dataSet
getAg
baseDir
##Summaries
##Prefixes
JCR
addActionListener
01
samples
##Live
##FILE
getProp
##query
##emma
parms
##Player
Transport
##Consts
Groovy
RPT
cach
##TR
##29
getFields
resume
setResource
getBack
##Spaces
##Buckets
getScope
BASELINE
CURRENT
nr
none
##ident
gml
half
##xMessage
##Func
##67
##Bug
writeByte
related
iteration
popup
##SecurityGroup
ENTERPRI
ENTERPRISE
CODES
Ver
##License
##StartTime
##Appro
##Targeting
##Overlay
Bl
hide
m20
rsp
##a1
##Sep
##II
getZ
probe
##ervation
getSpec
##LED
prefs
PRIV
callable
##Quantity
numeric
PG
cookies
syntax
##aiter
##Offer
##Was
##igr
setLocation
writeEnd
stride
getDet
splits
##sembly
JBB
browser
sparse
ticket
##Consum
clusters
queryParams
HttpHeaders
##Resolve
Platform
Envelope
SEGMENT
broadcast
lbl
##bc
##Dt
##urator
##Inline
##KeyException
##FileSize
alg
##AttributeValue
##gingStation
AttributeValue
##STRACT
workspaceName
##Discovery
NEXTTOKEN
m22
##Av
##Processed
##RequestException
##Cnt
##fg
##EV
##Projection
CmsUser
ready
##sWithServiceResponseAsync
Admin
OutputStreamWriter
Monitor
AST
CUSTOM
OS
##Cross
##host
getProvider
getThread
##ingular
isF
createTemp
LAY
executeGet
Login
COMMENT
optim
Split
jms
rt
repeat
isInterface
checked
##RefType
views
##Endpoints
CONTAIN
partitionId
##Viol
##Quota
##Vertices
beginCreateOrUpdate
afpChain
Be
near
inline
##Seen
timeUnit
FIR
ServletContext
association
DIG
Ljava
LITERAL
##ife
stringBuilder
getNodeType
sigma
WINDOW
d1
##dp
##Iss
##fw
getIs
##asis
ObjectName
paramType
moduleName
##Difference
bindings
XbasePackage
MPP
##ru
##atives
insets
##igner
commerceDiscount
getNodeName
determine
Analysis
Cached
DIST
DURATION
Max
##otos
stringValue
deviceProxy
ORDERED
##mbeddable
##Best
getRule
Private
XSLT
Connect
getScheme
KEYS
SQLite
secondary
flatten
lifecycle
Vec
##Hit
##essment
ObjectMapper
Info
##Assertion
##URITY
##ScaleSet
THREAD
CDKException
TIMESTAMP
bos
coord
##cii
newArray
##ResponseException
##anned
exiting
##FixedRate
BACKGROUND
IDENTIFIER
VISIBLE
IGNORE
##Blob
##vc
##Exclude
##elet
Display
##process
Step
hidden
##olicy
getCollection
##ceeded
keyType
##Parsed
framework
##ks
##27
isFirst
addAnnotation
TypeVariable
numBytes
##FunctionBuilder
##escape
NoSuchElementException
boundary
FINER
ANY
##verrides
ops
CmsReport
NodeData
##ICK
commands
##Bootstrap
PRIM
getStringValue
upgrade
cells
POSITION
foreign
JFap
average
##FR
##olat
readOnly
preferred
getReal
##Expiration
opts
##Interceptors
BEGIN
CommsConstants
more
##Keep
##ales
##LECTION
getFl
INTERFACE
Amazon
Jinx
aux
##Managers
##oggle
CmsWorkplace
##Heartbeat
##incipals
Convert
AG
Rev
m12
##Frequency
getSql
##herit
using
COMMIT
neighbour
combine
gp
##Require
classInfo
##IDER
Exp
##reement
##Contains
##ControlFlow
##stitute
mixin
##Faces
##wd
program
queryBuilder
zipFile
getAsString
duplicate
watch
##Latch
##api
minus
sessions
##ChangeEvent
POSITIVE
Criteria
t0
##I18n
##Annotated
##illed
##ird
instanceId
##obot
##unic
reload
Description
incrementAndGet
NetworkInterface
##Near
getTop
instruction
readUnsigned
struct
elementAt
##Docs
SCREEN
##Destroy
FIRST
Couch
band
drag
##inity
##uples
##vention
acquire
delivery
##UserId
styleable
VirtualMachine
Site
SECTION
##fx
getPassword
superClass
##enticator
Bucket
Failure
akt
##Vault
##atisf
##ora
##acam
writeStart
alarm
##ynchronization
DoubleMatrix
ordered
BufferedInputStream
##Business
Edit
##Updater
PrivilegedAction
##Rank
##edSet
tracer
priv
##Processors
##Framework
##SQLException
animation
GitLabApiException
getBounds
dp
getWithServiceResponseAsync
createElement
##Perform
ceil
yyyy
##CLUDE
Lifecycle
lc
##iner
setOn
##FileEntry
pathTo
##ApplicationSession
Password
SO
gallery
##BASE
##Fed
##page
setIs
mapTo
##Altern
FIX
##Axiom
Poly
##BS
getComp
CmsDb
getCall
NodeUtil
agg
BitSet
expire
RewriteRule
Serializer
dl
##Fn
##Round
##Cred
setDescription
##ods
executeDescribe
DBParams
digester
cop
retValue
##ByTagName
Vector3d
Instr
snmp
EFapsException
Blob
rr
ttl
getStorage
FileStatus
##Comma
JBBP
BUT
thrift
##tereo
##Transient
baseName
tempFile
trimmed
webApp
getImp
##Pixels
Sign
XExpression
dialect
rp
##aption
##Cent
getAvailable
##riggers
CommerceDiscount
siteRoot
entering
##Rotation
Prom
##za
getExternal
##ulative
##ocated
iso
##Proposal
##udo
visitMethod
expressions
redis
PRIMARY
Kundera
S3
er
getTo
##Adj
ACTIVE
##PPORTED
##ONENT
##chemas
##ivalent
DIRECTORY
j2eeName
ou
rtn
##opping
##alk
toIndex
##park
delim
SIConnection
JsonToken
clusterName
Decimal
##Placeholder
SIBUuid
getHeaders
setEntity
##ENDER
##LocalService
MANAG
Cursor
Mouse
SF
ans
##Autom
setFont
##Linear
connected
getChildNodes
##Factories
Diagnostic
##cending
##CastException
AssignmentField
l1
##olved
ArrayUtils
There
resolution
actionPerformed
Issue
Pars
prod
##Stub
##obj
getRole
timeZone
##itories
##Play
##istributed
SECURITY
ai
##FIG
##gth
##YN
setTitle
##Coll
sourceFile
superclass
secure
Upload
##yclerView
Cas
cu
##44
ExpressRoute
CmsLog
contextPath
##CEPT
processing
##ActionPerformed
##ECTOR
runner
commercePriceList
Principal
##Secondary
ser
getParser
recMessage
SCALE
getPrev
face
##wall
##TABLE
##ascript
isUn
##TimeZone
Region
unmarshal
##Replica
Mismatch
futures
sarl
##Navigation
##UC
getWriter
##ancell
##OrNull
getLayout
##erialization
##Activ
CT
nil
pivot
##Repo
toInt
##loaded
##Platform
REPORT
FINEST
COMMAND
dow
py
##S3
##Ws
references
configured
buildData
disconnect
##Descriptions
aut
jLabel
tbl
##Comments
##PackageName
linked
##Expand
ASSIGN
##haviors
HEL
Imp
ax
##Sketch
##env
requires
getPayload
mappings
align
##PolicyInner
Selection
RESOURC
TypesPackage
1f
m02
##MP
##dfs
LOAD
##AGING
##Subnet
TraceEvent
##Windows
needs
POINT
##WishList
lab
##br
##WR
##Analyzer
getEndpoint
publicKey
defaults
##Authority
##PublicKey
Topology
And
DOWN
FONT
gateway
##95
##TypeArguments
isSuccess
accumulator
Graphics2D
observable
##Squ
##uby
addGroup
propertyType
##Retention
getSrvOrm
fi
##tein
##stack
respon
addError
Conn
getMatch
registration
clearCache
imageType
##scap
Gitlab
SMALL
INSERT
00
Dig
##v4
##reat
setT
Paths
theme
##IFT
difference
Workflow
Workspace
accum
##availableException
HORIZ
spi
##Steps
##sd
##Hdr
trail
getLevel
assertNotNull
##ISSION
##olic
##U8
##Effect
##ervals
##Chem
inputType
##une
##Callbacks
temporal
Generator
ActionListener
quality
TimeoutException
MPPUtility
getAsync
getTags
maxLength
DEVICE
incoming
SCRIPT
deviceName
##Recorder
datastore
leave
##length
StackTraceElement
iErrorCode
##FO
getSignature
methodClassName
deleter
hostName
openConnection
ALG
restart
SKIP
mime
##SD
keyName
##Outer
##positories
REGIST
getItsId
Evaluation
From
h1
ti
getSettings
Interface
##IGH
PropertyType
getRepository
threads
META
##ctxt
ORI
Send
startPos
##ChannelConstants
blocking
chunks
AccessController
atts
xx
getBuffer
##agic
setMessage
addItem
##HostName
slash
hasMoreTokens
##Multipart
SARL
##Sq
##ving
##filter
##HS
getChar
setLast
##Implement
deg
##wise
rew
isM
cld
##PolicyRequest
EntityMetadata
##Problem
automation
TYPES
gt
lm
pv
##RO
getMetaData
##rier
##ueues
ClassCastException
##StrLen
transformed
only
##Locales
dateFormat
##Termination
##Iteration
Reflect
##aught
##ENCY
DDRM
mul
w3
##28
##arly
setSelected
Point3d
applicationName
##duces
needle
23
##Attempts
BaseField
##Cells
latitude
Attachment
##alker
getDevice
ISO
##Serialization
binder
##Datatype
Received
VERT
effective
xctxt
##cal
##Sensitive
##Foreground
decrypt
dispatcher
##PerPage
openStream
getResourceType
LA62
NAMESPACE
45
DET
##aad
##visor
##ZIP
##RIC
VALUES
ResourceException
fullName
LineString
##umbn
WAIT
##Catch
##ClassPath
##aving
readFile
##Generics
Struct
aktMemo
LD
frag
sx
##BO
##ymm
##Norm
##other
##rapped
##CHOR
##Devices
JFapChannelConstants
##aadin
27
500
vpn
##Arc
newState
includes
classname
convertIfc
Asset
getRelation
##ystrix
Equ
obs
##doc
##Indexed
##Contexts
getPublic
##Dirty
NotificationChain
getPartition
buildingFunction
BINARY
CollectionUtils
locations
##Measurement
InputSource
##Maintenance
Bootstrap
QUE
TS
##Candidates
setSource
LA5
##Reload
##Upgrade
rawType
Cli
k1
##Nested
##agination
translation
##Cls
##Black
##ersisted
##Lexicon
##Negative
dayOfMonth
SAM
sz
under
##riev
toMillis
Program
endOf
##Working
##Ordered
getTile
ANCHOR
DECIMAL
Nam
sun
y0
##Clear
##Are
##ceed
##ello
##APH
##Costs
supports
remainder
Azure
ratio
##ression
##ymbolic
##Msgs
SERIAL
getAnnotations
xsd
procedure
parameterIndex
TreeNode
##SecurityException
##ampling
##aims
getDisplayName
De
Journal
stem
##zz
##Aff
setSize
##imits
Proto
elementType
##Shipment
##Decision
getFrame
getGlobal
##Explicit
NANOS
ancestor
pol
##col
setObject
##Classification
##InfoImpl
Transition
TRANSIENT
##Verbose
FastMath
REGEX
createOrUpdateWithServiceResponseAsync
H2O
getActivity
##ograph
##uteNode
CPInstance
##ONTAL
HORIZONTAL
29
##Err
currentIndex
jobs
jcr
HEX
mutation
qr
##Sm
addValue
##Colon
##PropertyType
serviceEndpoint
##ownload
bonds
##ftp
Readable
KNX
ESC
ee
grow
##Friendly
##ds
Interceptor
strict
##Meter
counts
notEmpty
##panded
getLocalName
corner
abort
##Router
ENGLISH
Jdbc
fm
inverse
##IfNeeded
WebApplication
##ways
boundingBox
getFileName
MESSAGES
##nalyt
CHARSET
##SceneObject
getStructureId
35
COST
OPT
categories
fx
nanos
pom
##Repeat
##WithCode
##StyleName
##istoric
##ComboBox
Section
library
##LAR
##sql
##FC
##Persistent
formatMessage
models
##Buttons
##NetworkGateway
DOMAIN
##Bundles
##RESULT
Offset
nfe
payment
##aemon
##olid
##style
##rows
reshape
##Acl
white
##Generation
getContentType
artifactId
beans
typedArray
goto
##Cach
##gen
longitude
preference
objectMapper
##Localization
getGeometry
SERV
IMPORT
POOL
instantiate
unmodifiableList
##Coverage
5f
CASE
OTH
arc
sid
getOperation
keystore
##NDLE
Iterables
grpc
Lex
meth
must
##pa
##TIME
##65
setImage
Resources
##Subtree
docId
##PLIC
##DBIDs
##Temporary
GE
HASH
templates
##NotEmpty
##Keywords
cardinality
CLOSED
Ssh
##Mean
##etries
getQualifiedName
messageProcessor
##Servers
boot
##Trim
##ersister
##SequenceNumber
managedObject
ABSTRACT
jul
pub
##xid
##Raster
##Eval
##istent
##KeyValue
##Mapped
##Tracer
##IMUM
emptySet
Datanode
PRIVATE
vl
##inish
##alUnit
##Extent
##ounce
Maps
##Statistic
##parent
##Varargs
docs
WebElement
##Capture
population
##Artifacts
ROW
r2
##Singleton
##Mouse
##Rollback
##arter
isOpen
toPath
getTerm
escaped
blue
issuer
setIts
qName
recur
##bus
##Fallback
##NING
##igu
##Statuses
tsdb
wb
xbase
##Bridge
getQueue
##idue
expires
imported
caption
upperBound
##ScrollPane
Spatial
##PrivateKey
JO
Main
click
##Ld
##Tip
##500
##AccessControl
adwords
STRUCT
latest
getSubject
Visible
BUTTON
##olve
##Prepare
accountId
mediaType
Using
##eighted
##quential
22
queries
##Budget
##Parameterized
LocalDateTime
findByCommerce
creator
VER
g2
##eam
##Dst
actor
FileWriter
ExceptionWithCode
##ETYPE
##Executable
basePath
FOLDER
##ordered
emptyMap
##force
centroid
ste
##not
##Inters
##ORDER
scopes
parents
##STANT
Append
overlap
getWorkplace
TEMP
v201809
ROL
bldr
sanit
##Cart
##Pk
isActive
##ToFile
Export
strValue
blockLength
updates
finderArgs
radix
GA
Hystrix
Pop
Round
##isc
##TypeImpl
appfw
currentState
unexpected
closeSession
##recation
##Aggregation
Joiner
JspException
MISS
##rott
sendError
##Printer
##Marked
Secure
##ience
##Rs
##RC
##orph
setWidth
getPos
##unit
positive
HttpSession
conversion
Accept
hosts
getMaximum
ACTIV
##Attachments
Current
DI
lg
n1
pa
##uns
getInner
##illi
choice
##ServiceException
##NextAsync
columnFamily
##Dimensions
placeholder
Usage
Follow
StringReader
##ationTime
minor
##RuleInner
Modify
toBytes
##Tracking
createQuery
readByte
errorcode
##ExpressionAccess
executeDelete
initialized
PropertyKey
HtmlTag
team
alternate
VOLAT
analyze
Ab
Kam
salt
propag
CommercePriceList
Alluxio
Ap
Cap
Jav
Persistent
SA
UR
hook
sel
steps
##ral
##ATIC
outputDir
##OME
##Dependent
getJvm
Credential
LET
orientation
isNew
prior
##FailureException
Any
##echan
REMOTE
ReflectionUtils
90
##aas
##brev
##Issue
##45
##Zeros
getURL
cond
setDate
setAuto
indexed
##lying
##URLE
##Seed
errorMsg
##ANK
##UserName
visibility
##QueueEntry
##While
ServletRequest
##Consume
CANCE
coordinate
##Den
##PED
appendSkipped
typeElement
ROLE
BUNDLE
associate
##IfNotEmpty
Codec
Dwg
TAB
setG
nextChar
##Deletion
##overable
##Minute
cpu
##Initialization
##oltip
getCmsObject
appendSkippedTokens
ANT
V1
om
isE
toMap
Inf
tcp
writeValue
clz
##SessionId
##umbnail
Alert
listen
##full
##seudo
startElement
httpMethod
##Retries
CONFIGURATION
setContentType
getElementsByTagName
NamingException
##RESULTS
pages
##xies
##sResult
##weight
ifPresent
##Reverse
##Compression
##Comparison
##iph
FieldType
##ProfileDef
Controller
##Vertical
ctrl
suc
##ingStrategy
##ServiceName
##Modify
REV
backend
registryName
overwrite
##Frames
56
Fax
aff
##Journal
getBuilder
getJson
##ODY
Complex
symbols
XMPP
arch
fit
ht
pay
##Footer
##Ra
##ingKey
##Convention
setX
executeList
COND
##Ordering
MESSAGING
UrlFormatter
##ecessary
DESTINATION
##edSetException
Le
Normal
hadoop
war
##rins
##Bin
##IAN
readLong
TypeName
alignment
modifier
getMaxResults
aliases
##Violation
Relationship
##SIZE
Swing
ge
##Broadcast
##Car
##erc
##isk
toFile
toJSON
##Train
createRequest
methodInfo
sourceClass
STORE
##FoundException
management
HIGH
mf
oauth
##ble
##48
isSelected
getCreate
getBegin
##SiteRoot
LayoutParams
mpxj
MismatchedSetException
VOLATILE
COP
PK
messaging
##Jdbc
unicode
##ManagerServices
##Pref
##ACTER
PropertyDescriptor
##MBOL
GeoPackage
##Cleanup
NEGATIVE
Ret
horizontal
##Jms
setBorder
##DataStore
##ObjectName
TypeMirror
parentId
decor
##Transactions
##Leader
##When
##MeasureEClass
getSearch
AUTO
##Aggregate
completion
Promise
footer
latch
mount
margin
getUuid
##ToUse
writeLong
JsonArray
##Rectangle
##EFINED
setInput
##Promise
##Related
##Gray
##Lexer
Creating
cut
occur
##Immutable
##Audio
appendTo
HtmlStyle
FN
Icon
spliterator
##MIN
##Room
##Touch
##aton
##ingJob
starting
extend
##AccountInner
DAYS
kunderaMetadata
##Javadoc
Gen
rl
##OfMonth
##PropertyOf
compiled
graphics
##filtered
Xtext
r1
MethodSpec
JsonElement
specific
GenericApplication
Annotated
GZIP
Light
Pipeline
##ners
##79
getBuild
retain
##KeyField
##FromCache
##EntityId
PROGR
QUAL
##SpecificationOptionValue
##ommend
getOriginal
dh
hdr
saw
##eel
##atures
getInit
FileReader
getCurrency
sourceMethod
##resource
##Applied
##HttpResponse
##auses
RAD
epoch
##leaved
newKey
severe
##Visit
quant
Remove
pClass
##Io
getQ
appendable
##mooth
CmsFile
##Unary
ENTRY
Diff
##tinuation
writeEOL
Jenkins
got
png
##task
##Arch
Insert
##Roots
##IfN
propValue
classNameId
##PlanNode
##Handles
Av
f1
##Lon
##lib
readString
contexts
SystemException
##AccessFile
DataStore
refs
EntityType
Adapter
##Editable
publisher
SYMBOL
VARIABLE
Rtf
bw
guid
##edicated
addOn
##Trade
Mapped
caseIfcRoot
##Chunks
##Building
CHARACTER
##CODE
##puter
##INTER
##Substitution
copyFrom
KeyValue
##VarName
##Leading
getChildCount
guess
##ShippingFixed
automationAccountName
80
could
##Radi
##lict
##Inbound
concurrent
##Prot
##ooKeeper
##fferent
##ucer
##OptionCategory
maxValue
##ConfigurationRequest
##QUARE
Peer
sketch
v0
##kit
##lines
##Recursive
##Cr
##etype
##ByUuid
##Converters
DISABLED
CPDefinitionId
CONNECT
bookmark
##TINGS
WsByteBuffer
##Cop
##AUT
setTo
##USH
##Capabilities
##Aggregator
QUEUE
Sample
fatal
pull
##Lost
##Cas
unescape
getReport
Click
Has
##Bulk
##graph
setL
argv
strCommand
##Align
headerName
##CommandLine
MAXRESULTS
HANDLER
Direct
Fixed
##px
##Wave
##agger
isWhitespace
Thrift
RequestMapping
diag
plugins
ACCEPT
DERIVED
##Canvas
##RESHOLD
traverse
##Try
newSize
appendOptional
ClassDoc
unb
minValue
##Readable
##Inside
multipart
Problem
##Nm
##XPath
##amps
##periment
##ryo
getMark
initE
recipient
KeyEvent
##Months
QUOTE
65
JButton
Kafka
##hes
##HE
##leased
promise
##Assert
Sets
authenticate
Compiler
##TaxFixedRate
GenericApplicationPropertyOf
##Med
##VERSION
##NA
requestNumber
##LineString
JsonLd
##Implementation
##Datum
Fragment
Launch
Raw
##War
##gp
##anza
getLat
Deferred
detach
getDeclaredField
##Realm
getServletContext
##UTF8
Hive
oper
##mask
##ros
##activate
pairs
##Corner
scene
##xim
##CF
##Insp
##ocate
chrono
initCause
##ColumnNames
##ISION
##ociate
findByG
##Balance
getSitePath
LANGU
##xMessageHeader
##FriendlyURLE
bid
ClassDescriptor
##Counters
##DefinitionId
InvalidArgumentException
##spaces
openSession
##Subscriber
FIXED
Gson
camera
campaign
gbc
na
##KE
##ony
Profile
PROD
##NextOptions
##Decorator
ViewGroup
sslContext
##ProductId
##ANGED
##Toolbar
##AttachmentFileEntry
DISTRIB
180
Calc
##RS
##dep
##ollo
exponent
choose
question
##Enter
lowerBound
PROVIDER
75
If
i18n
lin
##Band
##Circle
##esources
readable
##Converted
ALIGN
BufferedOutputStream
getAttributeValue
##rogate
lexer
parameterizedHost
pause
##omplete
##ocks
lineTo
##Swap
##OptionValueRel
WHERE
##fully
Category
IL
dos
n2
##Svc
getEnvironment
setVisibility
compose
DataOutputStream
ConfigurationException
##IDDEN
MISSING
38
##Deleg
##uring
##ItemId
##General
dstIndex
IDENTITY
##NG
##err
##StartIndex
##ACL
alt5
negate
##Replicas
##egral
purge
Area
Caster
##CB
instrument
##STORE
SEARCH
##Flat
##Precision
problem
EXPIR
##Soap
##FriendlyURLEntry
ZonedDateTime
bDisplay
l2
##drog
getNon
##Concurrency
idle
superType
##Projects
findByUuid
##iphers
Publish
nat
exact
##ToInt
value1
##ParserException
##CompanyId
visitInsn
customer
declaration
bigDecimal
##Derived
appendOptionalAttribute
Cassandra
##dm
##apoint
##ibern
##NotSupported
checkValid
objectType
contentSpec
processors
##Alarm
##Generate
displayName
getPlugin
injector
getPrevious
JComponent
Lat
Packet
bund
sourceMap
floatValue
onSuccess
stackTrace
Algorithm
MODULE
##onymous
PERMISSION
##ibernate
pu
wildcard
##later
##Durable
##Handshake
##url
##essThan
providers
Example
##OrBuilder
##OLDER
##Disable
##Controls
PathParam
Scal
LOCALE
##Accumulator
REMOVE
##Adjustment
FORE
RENDER
WORD
vendor
##ModelImpl
##Submit
increase
##TierPriceEntry
ExecutableElement
LETTER
CAT
lt
vfs
##SUM
##Csv
setBackground
##ackson
divisor
AtomicInteger
##level
OTHER
34
44
Impl
sdk
##Drag
##allet
CmsPublish
heartbeat
##ADATA
getColumnName
##RYPT
attachments
DECLAR
MEMBER
Ev
Variant
cid
##ingState
contract
resultList
##NodeId
##InfoInner
##ETW
Tokens
##Physical
##UGE
allocated
Cert
between
cover
##Observable
##MimeType
##atable
##Outcome
getCor
alphabet
ResourceType
##Documents
Compound
##ExistsException
##Implicit
Visitor
OPTIONS
##Mid
inStream
##InstanceRequest
##Dispatch
##Topics
photos
##ognized
drawer
Priority
polyline
Mongo
dictionary
createResource
INCLUDE
itemId
servers
beanType
CacheEntry
GAUGE
##RDD
##alException
##FieldValue
##That
versions
Disc
GrayS
##Sets000
FollowSets000
COPY
VOID
##LING
##Dates
##RG
##Styles
##ToDelete
locked
THRESHOLD
CmsDbContext
BODY
abstract
oc
##uting
parentPath
##Relations
jsonGenerator
AbstractExpression
verb
CertificateException
##OrganizationalUnit
RUNNING
##acamole
bDisplayOption
AREA
green
jwt
oos
p0
##uages
##eral
##start
setEnd
toReturn
requests
getScript
decl
getDefaultInstance
findByC
##LoadBalancer
getNextLocation
##Testing
##polator
Benchmark
rdf
currentElement
deferred
maxWidth
skipped
jm
##ares
setIcon
addLast
##LEnc
getBit
iterate
SEQU
bundleName
unsafe
##TxId
EnumSet
attached
Dataset
Cancel
Language
Sum
Sim
##Recur
##Ec
##97
newChild
##oubles
Track
getLayer
##Longitude
##SpecificationOption
##echn
getMainRecord
have
soft
##dem
addNew
##iring
##ToOne
classifier
player
EventType
##Regions
##PROP
jmx
lit
sa
v3
##Self
getChain
newDocument
##Concat
price
getAn
entityCache
##ILITY
invokeMethod
##Least
nonce
getEdit
Csv
HAL
ND
##Dialect
##Answer
getArray
getGroupId
##isode
startOffset
getNamed
configs
HttpHeader
getBond
srcCode
##IRT
##oordinator
##Conditional
Adding
CLE
##Maker
##umes
Conf
Trust
##UnavailableException
##CacheKey
##OUS
##Compact
PAREN
Money
PT
Parameters
##DR
getLe
##anning
getCap
javaType
decrement
portal
##ASTER
##uffle
MEAS
##Consumers
CONDITION
J2
Msg
SORT
mCurrent
marshal
##Mass
newType
##ilon
writeWith
##Namespaces
##Registr
##gnoring
##IFY
##lipay
Monomer
##vanced
CDKConstants
GregorianCalendar
dates
deleg
utf
inet
setProject
CmsList
CmsRole
inputFile
##ResourceId
##ETCH
##Recon
getSubs
##Associations
##ivalence
structureId
AFTER
##eleton
SN
##obol
##Union
executeCreate
relations
RequestMethod
colors
UNSETTABLE
CHANGEABLE
Connector
Axis
##brid
##ObjectType
##OfType
CmsJsp
statements
isDis
paramValue
##ranular
getUsername
descr
##reaterThan
ctor
ping
##Letter
##Dns
##V1
##associate
requestContext
LOGIN
ServiceReference
##AccessToken
##Maximum
##Markers
##address
Metrics
##GenericType
##buffer
MARKER
##junction
##Traversal
readFrom
Stage
timezone
##Clone
JavaClass
Flags
CWSIP000
PERS
SID
bis
included
##Suite
##visioned
DateTimeFormatter
Headers
GrayU8
getAtomCount
opcode
##ToMap
##tentive
##Once
Setting
DataInputStream
exitCode
spans
BoundingBox
##AUTH
cum
##SF
##Dict
##ingRule
addClass
##lies
##egister
currentFile
objs
##Construct
##quirement
##Specs
Tool
ALPH
getIdentity
correlation
setFill
scalar
##Routing
##BigInteger
Bson
Jedis
Patch
ft
raf
##tag
##BR
##TA
getItems
##AttributeName
annotationClass
RESER
DocumentBuilderFactory
##Loading
##Solid
extractor
##Dropped
##auss
Css
Fail
##ither
listIterator
endPoint
loadBalancer
ang
##ApplicationContext
chunkSize
QualifiedName
##Electric
Messaging
follow
##Led
##Way
##init
##ORITH
bytesTo
specification
##UpperBound
periodInfo
MtasSolr
DISTRIBUTION
Bio
aValue
cycle
da
isInf
##izard
compression
##TokenStream
getRandom
discard
NotFoundException
##forms
prediction
renderContext
ExecutorService
##EFINITION
SW
pdb
##roken
getSort
currentPath
formData
##ErrorMessage
minY
##Sharing
##ServletResponse
callbacks
getRequired
getNative
Completion
getDeclaredFields
getClientId
soapModel
getLineNumber
appro
createStatement
getCached
intern
##HostException
getJsp
qualifiedName
##Scalar
replica
##Facade
faxJob
##sMap
##Rfc
##PI
isRunning
##Outline
share
STAND
rowCount
compound
translated
SafeVarargs
GLOB
Wy
##Sb
##Bid
FieldDescriptor
FIND
overlay
writeWithIndent
Dictionary
Push
front
layers
##oaring
userData
eventData
##posable
doGet
Note
PropertyAccessor
beginUpdate
serializable
Framework
Help
Literal
Otp
Ssl
Vert
mess
##Certificates
newData
intuit
##TypeId
##Collab
##LET
counters
##right
commerceCountry
errMsg
HtmlConstants
Audio
LI
ULocale
cus
dv
##urer
valueString
numOf
isDel
jsonArray
activation
##Folders
Replication
securityContext
suppress
SEND
##Front
##ho
getWrite
##ane
##enus
setResult
##ListFrom
hasRemaining
##Controll
preview
ClientResponse
ENDPOINT
COMPOS
cds
getProjectId
Manifest
Co
Feed
Jax
You
a22
bool
##Handling
##arant
setProperties
getSample
##ResourceRequest
deliver
InvalidKeyException
##Directive
##Console
##agnostics
MULTI
BorderLayout
##cade
##Ep
getConf
setFile
toURL
typeInfo
##Builders
INST
##Through
locales
##utoff
offline
simpl
##HealthCheck
CW
fe
##nv
##Dr
##Pad
##N1
##Hidden
##uman
##Protected
outcome
shell
##ookeeper
enqueue
##Regular
##ProcessingException
TokenType
RequestContext
##ithmetic
Couldn
UnknownHostException
##Skill
Scanner
CmsContainerElement
Multipart
createTempFile
Revision
Catalog
navigation
rf
##Most
##Void
##Tensor
##60
##memo
newPath
classPath
Transl
##Notifications
denom
Mail
SQUARE
fac
##iated
##MIT
##38
getWindow
##ube
newHashSet
comments
##obile
Throw
getTimeZone
v20180
getPackageName
MANAGER
##fr
##Embedded
getResults
##ocused
##edora
toBe
##ObjectId
ArrayUtil
##Scopes
##1123
##Capability
variableName
MOVE
a11
dB
jndiName
kill
tot
##CSS
##Cfg
##erty
##urity
##igit
writeShort
strKey
removeFrom
##ELL
replaceFirst
predict
absent
##9999
EOFException
By
Elem
Jc
mutable
qPos
##WARD
##Circuit
getNetwork
resultType
##Actor
Except
startPosition
collap
##Online
Unicode
##Adap
recycle
tracef
getIcon
signer
vertical
isAbsolute
isErrorEnabled
47
Full
ace
##Geo
##anceled
queryParam
findView
0xF
PROFILE
##IZATION
Starting
##verridden
suspend
DEF
Super
SIC
getMeta
refer
##irth
tableInfo
pojo
##phased
getOp
gradient
RETRY
EQUALS
##ilationUnit
##ilarity
CmsVaadin
Credentials
Lookup
##Grouped
getEnum
##isation
finest
reaction
iditer
##ividual
PageException
JobExecution
##ircular
getLastModified
COMPONENT
frames
##Sections
truncate
MAC
aSource
handshake
sem
##Lake
##Ser
##zen
##Cut
##Cookies
##Explorer
##Cont
##TypeParameter
addCode
##EntityRole
ALIAS
##Behaviors
##duction
##augh
##CONFIG
zoneId
TangoConst
Drawable
CONTAINER
CmsVaadinUtils
Mock
##ring
##ji
##Art
##Ur
setPreferred
##ucle
getPh
responseCode
##ComponentType
modification
deprecation
##Minus
functions
REQUIRED
##Divider
##ecessor
##OVER
getUnit
##Question
evaluator
Monetary
Active
##Verifier
MODIFIED
dead
##Molecule
Multiple
##oneRegionCodes
##porationId
##REF
##do
##APE
##utex
colName
bufferIndex
##ADE
templateName
regionCodes
STATEMENT
getErrorCode
GENERATED
getRawType
##ORITHM
0d
NOR
Pos
iae
jules
##Att
isInitialized
##ielab
##aken
subset
Projection
##ForTesting
STOR
##Invoker
phoneRegionCodes
##UNK
##Img
serviceEndpointInterface
julielab
Values
iIndex
touch
##affic
##polation
##Refer
##INFO
CmsGallery
##Outbound
getCertificate
##Calls
columnCount
ordering
BaseMessage
Parsed
Deleted
special
##ynthetic
Hierarchical
Week
typeArguments
LOGICAL
online
##Participant
##toP
##SubscriptionEntry
FILES
##ConnectedException
EJS
##Life
##Zones
##ValueMap
it2
##WarnEnabled
##Https
##Assigned
##NotificationQueueEntry
##Vectors
TextUtils
##JavaType
PhoneRegion
##IRTUAL
PhoneRegionCode
##cut
getFactory
isWarnEnabled
logs
CmsRelation
##Caller
##Collections
getNodeValue
SHIFT
##oving
##Consumed
##nalytics
SIN
baseline
mVisitor
mesh
vs
##Persist
##xture
##odified
##aves
parm
maxY
hasOption
##Construction
##rences
authority
alt4
getCanonicalPath
AES
Rout
##Ancestor
##NN
retries
##iliation
setRender
isDefault
##tential
##Pools
CPRule
##Iterations
##WordsServices
isNotEmptyOrWhitespaceOnly
##ubscribe
##hanced
##IfNecessary
TX
closest
iKey
tax
##Bool
newHashMap
##Continue
##ours
ObjectType
asn
LA10
##BlockSize
dependent
##Colors
AdGroup
membership
StorePackage
MEMORY
hints
REPLACE
GLOBAL
Kernel
lr
##lings
getTypes
getPermission
CONSTANT
dbName
workplace
RequestParam
ipAddress
METADATA
##cheduling
TRANSL
GeometryIndex
material
##Calculator
##ranularity
Dom
DIV
Ent
##Leg
getInfo
newCapacity
##TypeMap
addJavadoc
##Resp
classPK
##FileFilter
cloned
defined
LA7
QueryParam
quad
applicationContext
findByGroupId
##InsnNode
SortedMap
ASCENDING
VisibleForTesting
propagate
bigDecimalValue
Download
Wiki
a21
qname
##Fqn
##Mechan
##ortion
getHash
getTopic
getArguments
##Std
##SetRequest
##NodeList
##EventAttributes
markup
Processing
##uggestions
##NotSupportedException
##ucleot
Cpo
FAC
PAG
attrib
journal
oAuth
##Grammar
##itation
##Within
##sheet
reflect
CheckReturnValue
repositoryName
WebApplicationException
CERT
HAS
pq
##Attrib
##Stored
createMessage
columnNames
##plets
Asn
##easured
##Diagnostic
translator
neighbors
TW
##ahead
##Fact
classType
##IndexOutOfBoundsException
getSip
nextIndex
chargingStation
minX
projectFile
##Deps
statementBuilder
AccessControl
##avigator
solr
##icros
400
Body
IChem
marshaller
m32
##oices
##fu
##ingPoint
##nstream
Prot
grouping
interrupted
ENV
##InterfaceName
##imestamps
getMethodName
##Called
getWorkspace
Console
CAL
PA
WComponent
mock
power
wp
##Vals
##Glass
setVersion
putLong
getAlias
##InstanceGroup
endElement
##ICY
##OUN
Transfer
quick
SHAR
##Secure
JR
glob
mx
##MQ
##Injector
##Concurrent
Choice
##pended
##ynchronous
getFloat
parameterType
drawImage
ZipFile
##RepresentationItem
mbean
##ippet
##Trailing
DecimalFormat
Find
LAT
##Canonical
##IUM
setStroke
##msg
##FieldException
colon
##Ord
Comment
matchers
##sphere
##Splits
##Overlap
ParserConfigurationException
##Degrees
LOWER
Wrong
eInverse
##Frag
##Power
newS
invert
##ERIC
getSl
getTemp
webhook
capture
scaling
emitter
##LEncoder
GRE
rack
##so
##HER
##tricted
##stab
addArgument
##RequestInfo
classNode
which
##Unlock
0x3
stringTo
NotConnectedException
FINAL
distinct
cart
pValue
##bum
##Mock
##94
excludes
##ortException
logout
##ContextFactory
##Oracle
assertion
targetFile
TypeInformation
texture
allocation
##conn
##Enclosing
Point2d
##InstancesRequest
ctxt
IoBuffer
PROGRESS
findViewById
NORTH
fb
w2
##Mutation
##Mention
getHandler
elm
createInstance
##avity
dataMedia
getDB
getCre
##ConfigurationInner
getRed
lineSeparator
getBind
Storable
FIELDS
##Incorrect
implementation
getMembers
expiry
Guacamole
TRIPLE
ALGORITHM
ALOAD
Pred
beg
dummy
light
sess
##Voice
##WAY
##gi
##eting
##anent
##pear
##InList
extent
##Configured
currentToken
INNER
severity
Acc
IfcRel
##DayOfWeek
fetchByUuid
coerce
##Normalized
TOPIC
LANGUAGE
Aff
FETCH
bbox
##LIST
##uzz
##TOM
getConstant
##encer
##DataModel
pretty
##Scores
updateWithServiceResponseAsync
comma
getRange
meter
entityManager
##Nums
##Confirm
XmlPull
##Bonds
bundles
##Cpu
##Pe
getDataType
repl
##pertype
maxX
##ASC
bundleContext
months
##Verification
WRONG
getMemory
CONSTRUCT
##emantics
##Cardinality
##MEUuid
HANDLE
BITS
IPortlet
nIndex
ois
side
volt
setUse
##osen
##Acceptor
substitute
##FromFile
eventName
##LOY
QueryResult
##Curr
Metamodel
##WindowId
STATS
##Subscriptions
copyOfRange
behavior
##cendants
RESERVED
Jawr
Py
Rx
SQ
analyzer
pRequestData
##ibly
##ima
fieldDef
##Strict
##Alt
dirty
domainName
##Assessment
##Percentage
CUR
Got
Tx
distribution
simpleName
##Migration
##field
##rozen
##adapter
##Reb
elt
##RequestListener
Produces
getDialog
##Subset
addresses
localVarQueryParams
getAuthentication
extras
interceptors
##Rfc1123
Embedded
Over
TEN
##Overrides
needed
##acc
##irection
parseFloat
##rawler
DateTimeRfc1123
signed
##BucketName
EXTRA
SSLContext
##cendant
CmsPropertyDefinition
EXISTS
##ViolationException
visitMethodInsn
FREE
SPL
Wait
a12
getDirectory
getfiltered
##enew
setPath
chr
##serted
##Collap
acce
readFully
columnInfo
##AnnotationValue
##Compliance
deserializer
waiting
nonNull
dynamicQuery
readUnsignedShort
Pack
tl
##side
getenv
##aste
##iller
executable
##ISO
SUPPORTED
##Propag
csr
fully
getSequence
probability
getEncoded
Detector
##atisfied
59
##aGlass
##eled
##68
setTotal
##very
unpack
##Sequences
outputs
##Ports
##Assignments
##Stopped
scaled
genericType
CA
w1
##nts
##igns
##ained
Contact
getPadding
argout
checkstyle
removeChild
##QueryString
UTC
terminate
##Latitude
##DTO
##Radians
HALF
Hsql
MASTER
m31
##rink
##Lit
##BY
##Bad
getGroups
##Extract
typeParameters
##InstanceState
sha
scr
##EFORE
separatorChar
##Heading
AuthenticationException
##Occurrence
##unication
##aussian
RPC
gfx
writable
##Und
getUpdate
newValues
##Includes
##state
setBody
##ToList
##ForNull
Unrec
##000000
##TypeEnumToString
##TypeEnumFromString
finderPath
CSV
Twitter
52
Email
Und
np
##efficient
##05
##InUse
##ToLong
##ClassType
Chat
Stmt
objectClass
initializer
CommerceAccount
conditional
images
LISTENER
getHostAddress
MD5
NL
None
tgt
##Layers
##oard
##CAT
##inis
##alone
##enc
newEntry
##andalone
readBytes
##Then
idx1
websphere
sections
Fetch
aud
##block
##Observ
##InSeconds
##anding
##Compress
##GroupInner
Exceptions
Producer
##Allocator
NodeType
NoResponseException
##IPAddress
##Expect
heading
##DownLatch
##stimated
##Escaped
getByResourceGroup
BLANK
hbase
ssh
utf8
##Itr
setY
getSQL
fileSize
##iece
serialVersion
USERNAME
setupDefault
listByResourceGroup
##SoFar
routing
CANCEL
DYN
Mime
migration
##Foreign
##Cli
##acon
##putation
parity
##PropertyValue
##LogRecord
##CacheSize
srcOffset
jsonConfig
getEffective
##Isolation
getOperator
##Installed
##Monitoring
avg
aws
getSiteRoot
##bedPane
VERTICAL
##MeasurementUnit
##inispan
Cmis
bt
leg
##Org
##Ignored
##lee
getControl
##ilest
removeAttribute
formats
LA12
##Decom
Fields
##Locks
getShared
dtm
MULTIP
geoPackage
RESOURCES
ln
##cached
##Freq
##eno
##Excluded
setScale
##OptionPane
checkResult
##UserRequest
blockId
##CHAR
LocalTime
##DocInfo
Vector3f
Indexed
##ConnectGateway
##USTER
XtextPackage
Antlr
RDF
##Ldap
##itGateway
setNext
value2
logError
##achable
##ParameterTypes
namespaces
destinationHandler
##Snapshots
keepAlive
Multimap
##Peering
f2
m30
sValue
tensor
##Tuples
##eto
##onal
##dev
##INC
##Ascii
strMessage
##LogException
Http2
##Plain
general
PageContext
##Hostname
##Accounts
dims
COLON
metricName
written
SEQUENCE
fault
freq
pick
semantic
##Futures
##Exponent
logLevel
currentPosition
ClassFile
ByteCode
WebDriver
phoneNumber
##Relationships
##Guard
ffdc
SIBUuid8
COMPOSITE
X11
years
##orized
setLabel
classification
getDistance
onFailure
##ACITY
NoSuchFieldException
127
##WaitTime
##Opts
##Authorized
AstNode
getMonth
isInfinite
bridge
sms
getStatic
##Repl
##iform
createS
putShort
Inline
currentObject
CmsLock
##OrThrow
asType
##VersionRequest
Commit
##Workers
Engine
TaskStatus
confirm
queueName
##Exprs
##AILABLE
##built
secretKey
caseIfcObjectDefinition
##iguous
##Tap
getRes
getNodes
##lices
##ARR
##AMIC
COLLECTION
detector
expectedType
##Consistency
##CSV
##build
##Expiry
RSA
copied
URLEncoder
CATEG
Gwt
JOptionPane
WIM
jb
k2
way
##Look
##Limits
##False
##att
nextNode
CONV
getResourceManager
terminal
##Equality
##Failover
##Degree
UNDEFINED
Digest
##weightTypeReference
CRL
Dense
most
punct
voice
##LL
##Horizontal
##YSTEM
##Prov
comparison
##ORDS
IOUtil
getPattern
##resources
##ConnectionInner
HttpPost
urlString
interpreter
##Reflection
bytesWritten
##OSE
##gorith
threadPool
##Spatial
domains
##Dbl
##IALOG
##Restart
JvmTypeReference
getPortlet
Incl
RELATION
##Geometric
vlan
avail
frequency
live
pooled
##Opcode
##ulus
##ToBytes
CmsClient
removeBy
TypeReference
elementData
visitVar
corpus
##MXBean
##gorithms
BEL
QPath
TLS
ve
yaml
##cf
##Fingerprint
##char
##Stm
toType
##DataMap
createParallel
##Authenticated
poolId
##Factors
##ibration
SYN
enterprise
Planar
stylesheet
createParallelGroup
Ct
IOR
Listen
TOT
Wildcard
circuit
##ning
##mi
##Dn
##warded
##aled
ints
##oupon
##ClassNames
##FactoryImpl
jobExecution
tempDir
containerName
interfaceName
CoreSP
NEWLINE
jaxb
Nfs
Please
city
pts
watcher
##ette
##olumes
setCell
##Proc
fileSystem
INC
timeStamp
##Specified
##Extends
##Chains
newLineIfNotEmpty
##Signed
getHostName
inside
##BigDecimal
##IllegalArgumentException
ao
jn
##bidden
##sm
##Paged
##Ele
##GS
getMetric
##mem
##eld
##iming
##AttributeType
getDataSource
##icture
BeanDefinition
STARTED
DBIDUtil
##Acceler
PERSIST
Pending
mR
##aly
##ArrayType
isEmptyOrWhitespaceOnly
##OutputHandler
getPropertyName
transformation
accepts
DateTimeFormat
##ModifiedSince
ACCOUNT
getRelative
##ncestors
commonspec
crl
##Sem
##Baseline
##install
iface
##Exceptionally
setIndex
logMessage
##Configurator
##Assembly
##Sequential
##resolved
##Para
##CharAt
stackSize
progressListener
##CKET
##Latency
basicSet
parallelism
##AFE
##Inspector
Alipay
NAM
RU
X21
bf
circle
hand
##title
##Bot
##Dem
isConnected
addQuery
##Integration
startup
fieldNames
adGroup
##EntityManager
rootDir
streams
##UriRequest
##Markup
ipv6
##Protocols
variance
annotate
setupDefaultView
FLOW
RG
Success
sg
##listed
##04
newList
##esting
##Starting
HttpServer
getOther
randomUUID
##Recent
##Deque
Payment
X22
wc
##BL
##Dsl
##Pur
##essian
##RequestBuilder
fieldInfo
##Interaction
##Logical
lastChar
subsystem
##Subclass
plot
AbstractAttribute
CHUNK
scoped
Parent
##Rendering
##Unsafe
NUMERIC
Flat
aggregator
GeneralSecurityException
SshException
GT
Merge
Payload
##Lazy
##FA
##Mot
##glish
getInterfaces
##Expanded
##usic
##cribed
Child
getMedia
LA11
clients
onClick
timeIndex
isDone
##Charge
##WorkUnit
##RootPath
handleException
namespaceURI
isSame
getUserName
installed
##Insight
windowSize
fetchByC
SCHED
DETAIL
##ByUuidAnd
visitVarInsn
LBi
Perm
ise
lemma
nx
rslt
scenario
##Mismatch
##EW
##assed
Comparison
##CallException
onNext
getBl
CommerceWarehouse
functionName
storeName
getGu
leader
##3333
PersistenceException
##ParameterizedTypeReference
Campaign
Params
T4
W22
dedicated
gamma
mouse
qs
##Bands
##sing
getOptionValue
##KeyName
##HandlerContext
Checked
isDigit
tableDef
activ
##Agg
quoted
endpoints
##Overflow
Card
GP
Ok
Sent
a32
##VAR
setFeature
isFolder
##TypeException
##Chronology
clause
##Allocation
getRender
groupBy
propertyNames
##aused
connectionFactory
headerValue
##mino
referenced
getContextPath
getDeclaredMethod
##WishListItem
getJSONObject
##italize
rewind
Fork
Master
W21
gather
xPath
##Mixin
getReader
setConnection
chem
classTo
logRecord
checkIf
##ErrorHandler
elev
##OCK
##Probability
getPriority
##Accepted
000000
writeStartElement
MEASURE
MetamodelImpl
Branch
Y11
a33
a31
fold
##Sdk
setNew
isType
##romos
Required
without
##LocalName
EXPORT
Place
TAGS
executionContext
BOTH
##FormalParameter
##ommendation
IEntity
Tax
W11
bv
mInput
getCommerce
StringHelper
proj
##oof
Mapper
argTypes
getCalendar
##ENTIAL
##IALIAS
systemId
WRAP
editable
ConcurrentHashMap
ANTIALIAS
ES
P2
Y21
mq
pf
roll
spring
##ICE
##Abs
##apler
proposal
toSet
getSocket
##LEvent
##ParameterType
##udy
##TimeoutException
FRACTION
rcv
PUBLISH
##Radio
Smart
W12
W20
illegal
p3
##DAY
##icast
tools
##ArrayIndex
##ETIME
##LOC
Interleaved
temporary
QueryBuilder
Shard
getDocumentElement
##Breaker
CmsVfs
RewriteRuleSubtree
Infinispan
STANDARD
RewriteRuleSubtreeStream
33
Attach
GWT
Sftp
##Like
getFor
##anner
##enation
thrown
createX
outFile
Coll
endPos
##ively
getMessagingEngine
##EndTag
##Matched
##ChannelRequest
beginIndex
##Slave
declare
MEDIA
Material
##Squared
02
X20
Y10
##kin
##Flex
##Press
getRegion
##iser
##Conv
isRe
isPublic
readShort
listOf
stroke
checkNot
STACK
##StartPosition
##Paragraph
srcFile
Scale
Ordering
Canvas
pnl
setConstraintMax
49
Ind
Opt
W10
YES
ri
##core
##Mut
##MET
##Pts
##writ
##Queues
##ortr
inode
profiles
addNode
##limit
arg2
getCategory
getRec
entityName
##Perf
prefixes
##STANC
##Terminated
qualified
##Serialized
VirtualNetwork
extracted
##Parallelism
budgetSummary
##array
Y12
naming
##Half
##eron
setResponse
##ansion
CmsWidget
##Metamodel
0x8
##RuleToken
decision
##RowIndex
USAGE
METRIC
##PARE
10000
declaringClass
Aggregation
##ShippingMethod
POLY
##DatatypeRuleToken
AntlrDatatypeRuleToken
LIB
SUM
##OAuth
##mf
##v2
##edType
CmsContext
fieldList
##evelop
outputPath
generics
ResourceMetric
##VariableName
schemaName
perPage
getTextContent
##ynamo
cfml
##JavaScript
blk
##agnitude
aggregation
cnx
##Polyline
JarFile
MEDIUM
##itrus
PrivateKey
Instruction
CNT
Purchase
RA
X12
cql
##USE
getController
##INode
outStream
getLimit
##formance
##Endian
encryption
getTri
topLevel
getDefaultValue
computeIfAbsent
charsetName
##AVE
Flowable
mathContext
54
63
GSS
Orig
Y22
Y20
b0
ey
##FI
##V2
##EJB
##erg
##Proxies
##ArgNotNull
prepend
doFinal
mods
##Compressed
##NDI
##Holders
ContentType
##ropy
sslc
Motion
##processed
overflow
soil
StatementBuilder
mcf
MILLISECOND
getRows
360
##Neighbor
LAYOUT
Appendable
##ucleotide
##World
getPost
setException
putResult
CmsProject
getListener
##ProcessInfo
topics
##PhoneNumber
getMinimum
getErrorMessage
FORWARD
discovery
PAGES
Tab
crit
rn
##coin
##Mime
##Milli
getGraph
##KeyPair
getSingle
getMessageText
##Startup
dirs
ruleJvm
Sheet
Indexable
##WebApp
##Fetcher
Marker
NoSuchCPDefinition
DROP
writeEndElement
ESCAPE
Duplicate
History
Wrapper
camel
knn
##DO
##DM
##TL
##GET
reject
##eatures
##ENTATION
getMillis
numbers
decrypted
##Compile
CLUSTER
InternalEObject
##Surrogate
multiple
SchedulerSupport
##rinsic
BEFORE
rng
finer
isRoot
##Star
##ValueExpression
appendAttribute
##DataException
createFile
##imers
curve
##Notes
##ForType
##ColumnIndex
##OrderBy
KEYWORD
tmpFile
poolName
htmlTree
##Txn
##GROUP
imports
present
Association
Which
BOTTOM
getPrimaryKey
Hex
Paint
Xtend
##Duplicate
##VO
##global
setDisplay
##Listing
CmsFormatter
getEntries
PathVariable
##JsonArray
NumberFormat
##DestinationHandler
##ampler
correct
RandomAccessFile
##Verify
fetchByG
problems
AsyncResult
dayOfWeek
DBIDIter
##planation
JOIN
LESS
PAD
TEST
hive
lcd
sName
##ij
##Ahead
##uristic
##licable
##Examples
##stat
##StateChange
##pio
getRun
Unm
outputDirectory
decorator
replaced
generation
ProjectCalendar
Only
FLAGS
createOrUpdateAsync
Arithmetic
Attemp
##apoints
CONSTRUCTOR
Z11
##PAX
returnCode
##edMessage
prepared
containers
##StartDate
destFile
beanId
Keys
getJS
ParserException
derivX
DatatypeConverter
SOAP
39
Crypto
Watch
fact
##LES
##A1
Procedure
clas
##Logic
JsonParser
alt7
ImageGray
##profile
##Tabs
Fluent
getPrincipal
##IncorrectCallException
Jpa
ear
macro
##Later
##Synchronization
##Mesh
##Aud
getForm
intensity
addCall
toAdd
##Streaming
asMap
##Parms
notes
containerId
remoteAddress
##argest
SecurityContext
AUTHENT
pixels
BASIC
Slice
underlying
getQPath
PRODUCT
##DroppedException
##oaringBitmap
Xsd
estimate
##BU
##DOM
##Pager
##Era
##allow
##DataList
##axCategory
##Objectives
CmsImport
getPer
interactive
getResourceId
Streaming
##Handled
SHOW
##PPER
solve
DEPLOY
ORIGIN
getInitParameter
serialVersionUID
IORuntimeException
DIALOG
FAM
Fire
X10
dashboard
##COUNT
##Persister
##hore
##Escap
setLocal
##OnError
Stapler
contentTree
REQ
copyTo
commerceNotificationTemplate
Apptentive
##Variance
fireEvent
highLow
factories
##Skus
Quick
##Routes
epsilon
##PagedResponse
highLowContainer
ACL
Citrus
Distance
DONE
Z10
fq
##Aux
setToken
isLocal
##oost
##icents
outgoing
##TreeItem
getRevision
EDGE
Mov
getStartTime
fontSize
cbuf
##TaxMethod
RECE
VoltType
##eeperException
Registered
getActualTypeArguments
DRL6
BORDER
Futures
V2
Z12
ftp
mBean
tod
##Water
##Average
##qp
##DataSize
ClassName
##ResourceType
##obicents
getMode
##ATIONS
cacheResult
dateString
DELETED
svc
getEnclosing
##Assigns
BiFunction
OVERR
##drogen
SPLIT
Soft
hist
win
##case
##BA
##RB
getConverter
##NameSpace
##Rein
const
setClient
isShow
##ClassDef
##ermin
getBest
SIIncorrectCallException
ResourceSet
MessageType
##Iso
InternalLogException
##atingSystem
##Phone
##ResultSetSize
OpcodeStack
substitutionHeadName
substitutionHeadNamespace
Docker
PID
magic
##Walker
##Need
restriction
##StreamWriter
writeBytes
readProperty
authn
channelId
serialization
ServerException
Created
highlight
##Offline
prototype
getQueryString
##Guess
##Deriv
##tinuous
parsers
mandatory
nio
##x2
##atur
setMin
##oug
toRemove
##ClientSpi
readBuffer
##Seek
pos2
transpose
Replace
alt11
MINUTES
##Expires
CommonOps
assignments
##ompressed
cnfe
SIMPLE
##Review
##859
ADMIN
##Issuer
getMarker
JsonLdConsts
GREATER
Hy
KType
OLD
RBB
Semantic
X01
balance
mContext
mAdapter
##Oid
isVisible
Prov
pathSegments
printer
##ManagerState
0xf
##Alg
documents
##iversal
GenericType
ECB
PublicKey
##rospector
##UserSegmentEntryRel
Hadoop
sdf
##Lite
##Seg
##Spliterator
##enal
intf
createDefault
preferences
getDes
##Unchecked
##Deprecated
##USED
Vector3
##Manip
##ucene
##Incompatible
ManagedObject
##Negot
##Bookmark
##Goods
privacy
Distribution
DONT
Video
codes
ir
toggle
##Hits
##Hold
##alDatabase
##orth
##ulner
##peated
##ToCheck
##OnExit
PRED
Unique
UTIL
##EEName
##Identification
##Invalidation
unmodifiableMap
##ENCES
setRequestProperty
asnOs
Wire
dto
volat
##Fold
##100
##stamp
setElement
setHeight
##Stores
challenge
##Ofs
##OfYear
CmsUI
prec
errorHandler
shuffle
Unchecked
##Submission
Transactional
BuildException
##Superclass
AtomicLong
Executors
PARTITION
Envelope2D
RoundingMode
##OUNTER
Jmx
SMB
ub
##Amp
##Tenant
getYear
concept
##oda
destDir
DateUtils
##StackSize
##Outputs
##SSF
##Signal
leading
PortalException
AGENT
Analyz
Circuit
HIST
Mutation
az
flickr
given
##FLOW
##Pressed
thumb
##iding
inventory
setColumn
setMinimum
##ByType
##ByKey
FileUtil
Proposal
##Notifier
userInfo
executeAsync
ENABLE
##ILL
predicates
##Iterate
THAN
failures
ASN1
##Rotate
reconnect
SecretKey
##Unmodified
##processor
##Uris
TOTAL
I32
aSB
bas
dw
gsl
tunnel
##coder
inherited
createImage
##FileObject
outbound
##Visited
spatial
OperationFuture
enterRule
jPanel1
Loading
trustStore
COOK
ALLOWED
LightweightTypeReference
CY
SEL
yes
##NF
##ript
##ipt
currentClass
##uces
getCenter
targetPath
getBinary
IDLE
getRequestURI
##Spacing
##Formatters
1000000
binarySearch
FACTOR
##ktop
ndFl
EXECUT
getAggreg
leaveRule
99
Bulk
OJB
bout
eol
mongo
pName
tex
##user
##pNum
##Antlr
getTrans
getTimeout
##rowse
##ends
colIndex
getAttachment
byteCount
listWithServiceResponseAsync
getMan
##EndOf
##AccountRel
##ccup
registeredService
CFG
XMPPErrorException
Tags
X02
ant
tre
walk
##BM
##CENT
##61
##peg
isLast
##loser
createFrom
localAddress
##AndF
##Containing
IDX
##oked
##Styled
##DBObject
Stats
##ACKET
TRANSFORM
ReadOnly
deactivate
sibling
stdout
LazyPainter
BioPAX
Lib
UPPER
gzip
raster
##rant
##Slide
##MOD
##Major
##Elems
##Resize
##ounter
getDryRun
UNITS
##rawl
levels
##SecurityGroups
getSelection
completeExceptionally
Dbx
##Failures
SPECIFIC
37
CUD
KeeperException
ROUND
##ned
##bytes
##Separ
##Boot
##inted
##Protection
##ListResultInner
createTable
logFile
##ObjectRequest
##ConfigFile
Concept
Filename
CmsSite
##ANS
removeFirst
ByteOrder
otherEnd
CharBuffer
MAXIMUM
getOpt
tileMatrix
getResponseCode
MtasSpan
FACET
Movie
AWS
OM
Vpn
hard
##Lml
##PID
##vial
##erAccess
##uracy
##iling
##elix
##edBy
setFilter
addStyleName
valueClass
##ificant
timeTo
CHANGED
##Subscribe
deviceData
enableNode
##Launcher
##RelativePath
POLICY
WeakerAccess
DRI
vr
##ca
##dOut
##Ctrl
##Polling
##trict
##accr
finalize
expl
##ValueSelect
ObjectManagerException
Contract
ArrayIndexOutOfBoundsException
entryRule
##pressure
##CodePoint
##OnDisk
sourceType
##AttributeDef
##Reliability
policies
another
##earer
Flag
PLUS
Boundary
Matrix4d
getRefValue
TERMIN
DwgUtil
##INCIP
##evelopment
a23
mIs
##ke
##bill
##Pom
##Ts
setLong
prog
toDate
##QueryBuilder
workbook
DBObject
tsuid
FFDCIgnore
##Compatibility
infos
RESOLVE
##Requirements
Couchbase
##orderedGroup
55
Drop
Sn
cassandra
pBeanName
##Sensor
##GLE
##HTTP
isG
isName
isNotNull
isEqual
##oting
##ITORY
Compression
##Interpolator
##EntityType
##DefaultValue
##Orders
MethodNode
parameterTo
NumberHelper
getOrganization
CONTIN
##ProfileRequest
##Specifics
##polate
itsId
##ripton
##INCIPAL
IType
Must
m3
##bitr
##FL
##GING
insertion
stamp
##ades
isString
isSub
prompt
addContainer
forPattern
##IdValue
##lecular
##uggest
getSerial
CmsSitemap
DoubleVector
##FunctionType
commerceAccount
internalGet
##Quoted
##Variants
##Incoming
characterId
getAdditional
responder
##ETWORK
setRenderingHint
##romosome
DryRun
Hello
Total
TCP
##CRL
##AO
##fol
getConsumer
##omcat
inbound
##MessageImpl
nextLine
CmsModule
##paring
nodeID
STEP
HttpGet
SIException
##Monomer
##NotificationAttachment
quantity
canRead
##CharacterId
assigned
ATTRIBUTES
##Imports
DatabaseException
##CONT
TransformerFactory
directive
##CharactersCharacterId
Slot
DroolsSoft
DRL5
##igrate
sanitize
DYNAMIC
ArithmeticException
DroolsSoftKeywords
lst
##etes
getPool
##Cond
##apes
##ATT
##MessageType
##ITCH
##EndPoint
HttpEntity
jsonString
quat
Prefix
getVirtual
NANOSECONDS
RADI
0D
Library
Xtype
##cache
##Bel
##IOD
getMapping
getZone
##arrow
##igen
setIn
##ALY
resourceBundle
enforce
adManagerServices
##AYER
EventListener
setSite
CHARS
VERB
CRED
Solution
crop
glyph
il
m23
x3
##Pdf
getInitial
##Excel
setLevel
createUser
getFiles
##BeanDefinition
##OrderItem
caseIfcStructural
Parallel
Delta
securityManager
##ENDED
BoxRequests
##Secs
mutate
getEditMode
PropertyAccessorHelper
AM
HOME
X00
jd
rid
uc
##Legacy
##yer
##Wall
##TW
##leph
getOption
getVar
setConfig
valueText
pathInfo
processInstance
does
URLConnection
viewport
TextView
gray
notifyAll
##Committed
UIContext
SCHEME
JinxUtils
##Intersection
EXPIRATION
201
Xid
legacy
rtf
tk
trees
##MAP
setAction
setActive
sbuf
getBatch
##ESSED
LogRecord
channelName
configurations
shortName
Modifiable
##ConstantOperand
##ernary
implicit
##netGateway
Trying
BitsUtil
Upd
Z21
room
##Saved
##esian
##anel
setRe
setAll
toRadians
##TimeStamp
##DirPath
getDoc
##AndPort
tokenize
##TaskRequest
arrays
DataLake
##AttributesRequest
sendRequest
CommerceNotificationTemplate
##Recipient
repaint
corr
JCTree
mojo
Partial
PLUG
currencyPair
##MutableTreeNode
getDryRunRequest
Flickr
HBase
HINT
JM
mer
may
##orated
getValid
third
integration
react
setStyle
##StringArray
Integration
##TimeMillis
getDatas
PRES
objData
enumeration
ValidationException
##Equivalent
getSelect
ca2
##Motion
CmsXmlContentValue
Matrix4f
##Owners
BOUNDARY
XSLTAttributeDef
HELP
##UnmodifiedSince
41
Distributed
Ident
mirror
##Billing
##MM
reb
##IdTo
classFile
##DataItem
getValueOr
##Applet
##Authenticator
orders
##Suites
CHILD
##TermRetention
##Declarations
EMAIL
ParserRule
insn
setConstraintMaxStrLen
##ynamoDB
IPerson
Tick
Z01
##Jars
newMap
##pers
isMap
##lope
##TimeUnit
nextDouble
resourcename
getFlow
baseType
##mdb
memo
caseIfcProduct
rawData
documentId
getColumnCount
networkWatcher
LEADING
associated
##TMP
devices
article
##ymbolicName
##PLICIT
getWorkplaceManager
CNTR
networkWatcherName
MAG
Z22
Z20
fax
vn
##oa
##Triggers
##Hole
getProduct
getQuick
##rol
##endition
##DataManager
##FieldDesc
maps
aspect
##ariance
getMsg
srcMem
ResponseEntity
##easures
getXML
collectionName
JCGL
isAbstract
##authorized
##PaymentMethod
Skipping
Facebook
##Caches
PAGINATION
RADIUS
Clock
CProductId
Maybe
fk
saml
##RET
##Cid
##Keras
##olver
##istant
##Grouping
##Interior
##container
getOpen
Webhook
diagnostic
NOTE
specTopic
Formula
MissingResourceException
setMaximum
WeakReference
DatanodeDescriptor
AUD
LF
RGB
Tar
eof
fun
fingerprint
hb
tango
vpc
vocab
wm
weak
##Sn
##DATA
##Coordinator
##orable
##ancing
isUse
classBuilder
##inex
IntStream
##AsList
currentPage
##ServiceRef
##StatusRequest
discount
##ServerException
handleError
SEM
##ExtensionType
joined
BUCKET
pane
CountDownLatch
Triple
##Attached
getNamespaceURI
##istorical
getPrivate
InfinispanCache
PLUGIN
HOLDER
Off
TC
W01
gw
grouped
machine
##Square
##COL
##alette
reth
returns
setLine
getPublish
DataBuffer
registerType
##Parenthes
COMPR
DateTimeZone
unsubscribe
CheckForNull
##Successful
SUBS
verts
##ctet
##INDEX
ASCII
downstream
LDAP
Wrapped
Z00
era
hits
z2
##Nr
##Contrib
isValue
FileChannel
getCatalog
CONC
orderId
commerceWarehouse
Score
MINUS
transactionId
##Indirect
##dence
Physical
Terminal
placement
rectangle
business
##ScaleSetName
CATEGORY
W02
Z02
spark
##oe
##ixture
##RGB
##89
ifModifiedSince
##itles
keyPerson
##Intensity
fileTo
LObj
printWriter
##Filtered
##UserInfo
Configurable
ThreadPool
CommerceAddress
AnnotationType
roundingMode
##Certs
asyncHandler
characters
LoadBalancer
GitLabApi
ZoneOffset
2f
LED
More
iMove
spl
tier
##hash
##edName
##Released
fork
getSupported
Inst
##Assets
CmsFlex
##ivalue
parseDate
TypeSerializer
getMessages
0x3f
warnings
getIdAttribute
##mitted
##ToolTip
datatype
DeviceData
##WorkflowExecution
ICU
##ymmetric
NETWORK
Obj
Sales
ld
pdf
uow
until
##Schemas
##DP
##RT
getWidget
##anc
newResource
setCount
setPort
isEnum
##ContextImpl
uni
charArray
HttpMessage
getTypeParameters
potential
##GraphNode
##Insensitive
##Elasticsearch
HttpResponseStatus
thenApply
organizationName
eInverseRemove
##ARRAY
BioPAXElement
##Vendor
##Years
##atim
##orations
getCounter
##edItem
##rlang
fileList
readAll
##parency
mapred
rowId
columnType
tagged
REPOS
SEP
alt12
##PanelLayout
HEADING
##BatchSize
beginCreateOrUpdateWithServiceResponseAsync
##Centroid
ROLL
JK
Running
aLine
q1
vrid
via
##Prc
getTh
getByName
##Inode
addSource
createObject
##AsLong
##moji
getAr
##alendars
invoker
##REQU
##ssuer
##Money
##icky
monomer
##SearchResult
DATABASE
Author
atan
concatMap
SerializationException
getInnerBounds
##Controllable
rethrow
Spring
btn
mr
smooth
##bit
##tle
##uffix
##63
##rout
##ecome
newFile
##cho
reuse
ListIterator
FileInfo
nodeData
checkPermission
taskName
RequestBody
##DBID
AppService
attempts
##Plane
tsym
derive
pwd
##aranteed
setPreferredSize
I18n
NODES
XS
b3
bal
pst
pagination
##Caption
##4f
##inance
newIndex
StringField
##InContext
##AtIndex
Real
getFS
evaluation
##Correct
##IpAddress
expired
getDeployment
MPX
intersects
CC
W00
crypto
ciphers
far
pager
##nemon
##Sites
##Runs
##Trie
getVariables
##Rem
##verted
addKeyField
chosen
##Keystore
##Trunc
putExtra
##FieldData
##AttributeNames
lineString
INDENT
##DbException
calculated
ApplicationContext
ANALY
ensureCapacity
centerX
crs
##ecursively
getFullName
getStackItem
whenComplete
Elastic
TENANT
PAY
##LB
##mgr
##part
getPolicy
##idu
addModifiers
valueMap
caseSensitive
##ATUS
getAuto
PRINCIPAL
doFilter
getTab
##REG
totalSize
PropertyHelper
##MemberAccess
concatWith
##KNOB
Visibility
inflate
nearest
##ancellation
sdkHeaders
SINot
Dns
VFS
jf
##Sym
##inition
getStatement
getConnected
##abler
##Included
setPosition
setVariable
addFile
exclusive
##ATES
Extract
requestBody
listAsync
minLength
HttpMethodName
plural
alt10
##Parents
Point3D
destinationType
Disk
CREATION
getDateTime
milliseconds
EJBConfigurationException
topologyId
jpa
##RIPTOR
JarEntry
##pearance
docker
hr
##Syn
getAccount
##ingTime
##ilFile
storm
##usion
Excel
serviceType
##ULAR
linear
jobConf
##utting
ConfigException
##URLY
beanO
idx2
TRACK
InternalQName
##Finally
setCustom
##IZER
aggregated
locate
preserve
creation
pointers
##Appendable
RELATED
discover
XMLEvent
derivY
drain
adjusted
##FireTime
##Prototype
##GroupedEntry
accepted
##minoAc
57
BATCH
CI
DM
MR
Oper
Ra
m13
##Fine
##ExceptionAction
##standing
setPage
##ToSource
##INSTANCE
typeId
##ipes
ClassUtils
removeListener
charge
contentJson
getPropertyType
getInstanceId
QueryParameter
Parameterized
##phem
getImport
getStatusLine
##asedir
BUIL
driverManager
Subscriber
##XAResource
getCreated
Lo
LCD
Naming
PB
Rate
Waiter
ontology
##ROW
##finex
##Kernel
##Jwt
##edToken
elastic
requestUri
##ResourceName
##tect
##ColumnValue
Actor
iterations
elems
attrValue
NumberVector
UserInfo
applicationId
scanSpec
##Webflow
##Customer
OvhTask
smart
##arlyExit
ACTIVITY
##deploy
##enalty
cron
##Ou
##amer
##quencer
foreground
##ples
createService
subtree
##obbl
##Interrupted
STAR
it1
onCreate
##afely
##IfNull
##Wrappers
PropertyData
ThreadContext
CPD
getCurrentUser
findByCP
soy
deregister
Rectangle2D
degree
WyilFile
STORAGE
##obblin
42
Ser
##atar
##acl
##ddy
asc
strs
checkBox
alter
##Referenced
##Slider
##Constructors
constructors
Clustering
multiplier
InjectionException
Aggregate
FlickrException
cod
hierarchy
rnd
sreq
##JO
getDirect
toUri
##AML
##InstanceName
##CacheEntry
##PageResponse
##ParamName
##Retrieve
InternalRequest
scripts
##BitSet
isTraceLogging
ALPHA
##ilestone
##Stmnt
EPS
EVAL
Histogram
##dn
##gg
##Tun
newline
##InCurrent
isLeaf
##Compose
##ugg
CmsGroup
assemb
##Interrupt
##LogFile
adWordsServices
##phan
getOwn
caseIfcType
slave
profileId
VoltTable
getAlgorithm
getUnorderedGroup
commerceCountryId
##Instrument
createConnection
##Intern
##EndIndex
textField
oldState
jobKey
##LayoutBundle
commandLogging
ThreadLocal
##Prec
##WriteLock
accessible
##PRO
grand
WorkUnit
siteName
Month
highest
failover
bais
arrow
operands
##ATEGY
##aughtException
SHARED
REPOSITORY
51
Asc
Deleg
DFS
IH
ei
sock
##cam
##sResponse
getInterval
getCharacter
##itives
restor
throwException
setRead
addPath
para
##AsInt
##WithDefault
unable
##EventHandler
targetName
containsAll
findMethod
##pstream
0x01
##mbiguous
Nonnegative
JobStatus
findByPrimaryKey
titleText
getFileSystem
ApplicationException
zzF
retrieveFromCache
SecureRandom
correlationId
iMoveMode
300
43
Observ
Persist
##bean
##mat
##Mer
setE
exclusion
toDouble
##StreamReader
##ptic
##ForLoop
lastDot
numSamples
complex
##rices
##PTaxCategory
##config
requirement
##Spot
Invoke
weightx
virtualNetworkGateway
syms
contour
deleteresource
##oliday
##lephony
##ivalued
Length
##Tunnel
##96
getArgument
##ingContext
##versed
##derr
##ConfigConstants
##ept
##ClientRequestId
pos1
LogLevel
SISession
##idel
EXTERNAL
##Boundaries
viewHolder
ItemState
##Domains
##ajas
##Abort
Affine
Jingle
Raft
XAttribute
esc
gre
xp
##xml
##D1
newVal
##Repositories
##umulative
proceed
Classpath
##Lengths
##OUPS
locks
##ComputeNode
##Curly
eviction
Statistics
ANGLE
##ENSITIVE
datum
datanode
setTimeZone
setHorizontal
speed
FOREGROUND
COUNTER
EQ
IQ
WEST
Y01
Yaml
ml
slide
##PEC
##Ui
##ameter
setCache
setAttributes
setTransaction
##Probe
value0
getSingleton
getCur
urlConnection
doOn
##EnumEEnum
##Flight
##AtomContainer
##lenium
Members
##FullName
getItemProperty
##policylabel
getEncoding
unsetresource
toolbar
##REAK
COMPLETE
getArtifactId
DEFINITION
Wave
Y02
a3
aNode
m03
tn
wr
##Fld
##Tiles
##Tolerance
getStore
##TimeSeries
lists
unary
Compare
targetNode
##format
company
executeBatch
##ValidationException
viewName
##atern
##Quant
getContents
getColumnIndex
ChannelHandlerContext
##EditorKit
SocketAddress
AtomicBoolean
Conditional
##ZipFile
##Dead
COOKIE
409
512
Either
Jwt
PENDING
Y00
a13
c0
udp
##Finding
##47
##lele
##ubic
##ameSession
ster
setFlag
isCurrent
ListBuffer
keyBytes
##ofa
Props
maxAge
endPosition
TypeDescription
LA15
fromBytes
##PropertiesInner
##mtp
Generated
getChildAt
fullPath
JCExpression
successful
##Waiting
DATAS
CDATA
##avorite
ListenableFuture
Glob
MER
Spliterator
VV
led
##LP
##Sound
##rel
##aphore
sets
addResource
##Prod
requestBuilder
TrxMessageHeader
CmsOrganizationalUnit
writeBoolean
readEntity
##OrEqual
printHelp
##result
##ICES
##Queued
money
sitePath
##RestClient
getDeclaredMethods
DESCRIPTOR
##Sku
##Population
Trivial
alternative
##Feedback
##center
Animator
Im
Ion
Tenant
embeddable
like
##Purchase
##07
##Analytics
##Trees
##Emitter
##only
##Bugs
subType
##OMET
##Executions
getEmail
cacheEntry
readerIndex
SimpleAntlr
Modbus
physical
chainName
##Elastic
identityHashCode
ddl
##levant
##ubyObject
Enter
budgetSummaryData
##nemonic
DIM
Net
Singular
bAdd
bImage
hot
##OFF
##MAC
##Cp
##ves
##87
newConfig
##Stale
explorer
ListOperation
##Eng
outline
sizeOf
##InfoMap
currentList
ClassWriter
idl
##ResourcePath
pathName
getManaged
roots
ifcT
srcPath
##HashKey
Vector2
phone
getFilename
capabilities
CPDefinitionOptionRel
notifications
getRowCount
syslog
Guild
vaultName
isLetter
OPERATOR
##Activities
Do
oasis
z1
##eal
##ufficient
##hed
##ese
##aga
setMethod
##ityCheck
Extr
longest
##ops
writeFile
##ITAL
##upport
##QueryResult
Requested
KeyArea
Severity
perf
deviceId
##Inflater
1000L
OvhOrder
FRAG
getPersistenceUnit
##Predicates
BiConsumer
##FractionDigits
##visioningArtifact
##ography
XSD
did
velocity
xd
setBase
##ryptor
##alleries
appid
classDoc
##cribers
currentChar
dataSize
LOOP
numColumns
getBig
Internet
##ILY
##ApiKey
shortValue
ImageIcon
##NTIME
##DisplayLayout
centerY
getEventType
##Parsing
##Denied
##AndFeel
##KerasConfigurationException
Ascii
Grammar
pKey
##VECTOR
##CLE
##QC
getHandle
##olr
setNode
isJava
addText
classContext
indexIn
instanceGroup
getDriver
TypeUtility
##Subtask
##Party
##URLs
RequestOptions
##Scoped
##MinMax
beginControlFlow
##EngineException
actualType
sequenceNumber
TEXTURE
##Specifications
##UniqueID
##Hints
getOrDefault
cmis
SocketException
attack
Renderer
##Does
getPoint2d
SLASH
##minoAcid
BREAK
Ge
JScrollPane
MEN
##Crypto
##peable
##channel
##Inference
##ocial
setNamespace
##ToUpdate
##ToDouble
classNames
##NodeMap
##StateHandle
ClassHelper
claims
initiate
##ercept
childCount
oldName
##Isotope
totalBytes
clusterId
DocumentBuilder
htmltree
Clone
zipEntry
##Taxes
##AssetCategory
PrivilegedExceptionAction
absolutePath
##phemeral
##uggested
POD
m33
pem
ufs
##pm
##AKE
##ulo
##StreamRequest
localhost
MathContext
##Encod
PROX
ipaddress
isNumeric
HOURS
BLACK
hmac
getChronology
Android
JRDesign
Es
ij
immutable
large
modes
##ah
##ingService
##check
##Reservation
toExternal
CmsRpc
byteValue
endControlFlow
getCoordinates
transient
##OTO
##Workbook
atomType
StreamSource
incr
##Sphere
##Spinner
##wards
Checks
getPref
##Connects
ValidationResult
setStringValue
setDataClass
INVOKEV
CmsSearchField
getScreenField
##MaintenanceWindow
##AccessControlEntry
##Insights
INVOKEVIRTUAL
BAR
CQL
LAM
age
criterion
embed
##kab
##mod
##Aut
##Aws
##GAL
##Jid
##olled
setUri
##version
##uspend
getSign
CmsAlias
fileType
asText
##ConfigurationBuilder
##Nonce
getResourceUrl
getJPA
OUTER
certs
##DistributionType
Insn
Doclet
VoltDB
##Signer
##Findings
getEdge
getStackDepth
##FFFFFF
implements
isDeleted
elevation
##kaban
Green
bn
wi
##Naming
##UND
getMetrics
returnVal
setParam
isStarted
valueTo
##ERR
##Intervals
##ObjectID
Exchange
CmsSelect
##ServiceInstance
claim
##ForResource
##Loaders
##ExpressionParserRuleCall
firstLine
recordOwner
parameterizedType
SUPER
##IRECT
##Leap
bracket
roleId
about
fonts
##CONN
##Serializable
XAResource
##ManagedConnection
animate
##Highlight
SIGNATURE
##AlreadyExistsException
MouseEvent
GeoPackageException
MotionEvent
MAGIC
JA
Jdk
SSH
dg
hyper
##offset
##CACHE
##Py
##PG
##POptions
##62
##iset
##asy
##Exceeded
setBoolean
setEnable
##ToRead
##andwidth
classWriter
Expect
getSection
dataLength
ido
##ITES
##UTC
registr
##ELD
##Parm
##JobExecution
recClassInfo
serverSocket
sortBy
ImageIO
fsw
0xFFFF
MAPException
##Selectors
getAssoci
Mono
##Customizer
##999
##BinaryOperator
anyMatch
##Expire
getPageSize
TypedArray
0x7F
##iltIn
##LifeCycle
RUNTIME
IResource
ITree
VM
ZooKeeper
wx
xi
##Vo
##Xpath
getCol
toClass
##StringTo
typeClass
Consum
index2
acceptor
INSTANC
##ItemType
##ptime
##PreparedStatement
##LocalDate
KeyPair
JobConf
namespaceId
webs
##Executors
cmdLine
cases
##Corr
CPDefinitionSpecificationOptionValue
JsHdr
secs
##Solver
branchId
a41
CmsContainerElementBean
denominator
HISTORY
Ip
amp
rfs
want
##Volt
##Rack
##Just
##etched
##orrent
ifUnmodifiedSince
##icens
getSpace
getSecret
##TextView
##ConnectionException
##QueryResults
ifcR
##ILDC
DataInput
PageImpl
deps
KeyStoreException
LocalVariable
URLDecoder
##Documentation
totalResultSetSize
styleClass
##Blue
AddOn
corners
ChannelFuture
##BondOrder
getSessionId
StorageAccount
pipelineId
exchangeService
a42
triple
Switch
##connected
Unrecognized
DAV
Title
af
we
##Pb
##ven
##Ti
getExport
##root
setDuration
isAuto
##Resume
##Tok
##StringValue
keywords
##avings
startInclusive
##ALT
inputData
Chem
messageId
##DefinitionRequest
##JobId
##UpdateParameters
httpServletRequest
##EXP
##ServerName
##Activate
theClass
recordSet
commercePriceEntry
##MemberFeatureCall
AnnotationValue
consum
##AssignmentInner
##avigable
DocBook
##Branches
BadRequestException
conversationId
Summary
Pooled
Year
##aque
##bon
##Sas
##Via
##Ips
##filer
##Hadoop
getStandard
setModel
setSub
setOwner
isotope
addMessage
##DataValue
createAnd
##AsDouble
containing
Reset
tokenType
onClose
##JobsRequest
invokeHttpClient
##Principals
PARAMS
joining
##Flows
getUserId
##00000000
##EditorType
a44
unmodifiableSet
##pective
getDepth
##Installation
##heritance
##hood
ICommon
Marshaller
PubSub
Saml
Val
overridden
##aaccr
##impl
##DL
setParameters
combo
##DataCollection
messageType
sourcePath
##Viewport
##BeanType
getTx
##TimeoutMillis
DefaultEditorKit
##PARAM
Bitfinex
##CLUS
monitors
freeSpace
BoxJSON
manage
a43
MojoFailureException
getBackground
OVERRIDE
ROLLBACK
stereo
ListOperationCallback
Left
Move
Scene
ae
gwt
##oS
##sPer
##Eq
##Erlang
##2Instance
##ides
isW
##liest
preparedStatement
##AtLeast
##StatusCode
##Validity
SIG
loadLocal
StreamResult
Recovery
getReason
##Reduces
ComputeNode
##UniqueId
forceCreate
##Serialize
StartIndex
##Throws
AUTHORIZ
##Wrapped
##riendlyName
DroolsEditorType
TERMVECTOR
setContextClassLoader
bom
tau
zNear
##Lst
##Gate
##52
##iny
##InStream
toBoolean
##loss
CmsEventListener
##oster
##URAL
checkRequired
##AddOn
always
childName
##ynchronize
##Claim
commerceWishList
ports
rawValue
EventSubscription
Generics
##Exporter
Ordered
##Products
##Redis
##CertificateRequest
recent
##ToolBar
##VirtualSetting
getAltern
guard
IPv6
CorpNum
##Evidence
##AttemptID
quota
decompose
AlluxioURI
##ShippingFixedOption
newDocumentBuilder
UnicodeSet
TRIPLETS
##ILDCARD
sat
##V3
##Clip
isReadOnly
##Trx
currentPos
dataBuffer
Collation
defVal
hasTag
##losed
##TableModel
##azel
##UserRel
##ertow
compatible
##cles
streamReader
##Alphabet
Elements
PathAddress
Keyword
##Flt
##MatrixRMaj
##EndpointRequest
SimpleFeature
STRATEGY
##LowerBound
repair
Compact
Versioned
Encoded
PLAIN
Primary
PersistenceBroker
SVGConstants
CmsContainerPage
##Small
Ax
Caught
IRing
Sur
TILE
estimated
fg
uic
##DFS
##Pi
##Hyper
##50
getBus
##ropping
setUrl
isFull
trusted
subtype
hasProperty
##OLOG
##Formatted
getRest
getForeign
CPOptionCategory
##Signatures
windows
getVfs
##Simulation
##Fitting
Behavior
AzureService
Ix
JMenuItem
RTMP
groovy
mutex
tls
##writer
##82
##Hi
getStop
ifMatch
setTimestamp
##Stopping
##Trusted
paragraph
##PropertySet
readers
mapWidget
asynch
argName
charCount
##PEG
contentId
Budget
##points
##Plot
paramMap
reflection
LinkInfoImpl
##Adapters
Recon
rangeEnd
isSupported
getTimeInMillis
##yntact
##ScreenRecord
getWrapped
solver
Matrix4x3
##Unmarshaller
##LostException
##Peers
CmisExtensionType
AzureServiceFuture
MO
SUR
cri
fname
ib
mmd
mov
sas
##Nat
##Halt
##asure
##eces
##ili
##ExceptionHandler
##erspective
##KeyId
##Integr
##epper
javaClass
PREC
##Apps
##Advanced
quiet
consumed
##Dims
Formatter
ORG
##ACHED
DISK
UPLOAD
##SIException
getTagName
##PLEMENT
busName
dfa
polymer
Optim
##obicentsSip
FRAGMENT
##icenses
DC
TI
dic
dash
hdfs
zFar
##Oset
##Sile
##Sanit
##model
##MC
##Team
returned
setPassword
appflow
##FromBuffer
Chronology
##Strip
DataOutput
dbSession
getTest
componentName
##VariableDeclaration
DBIDs
variants
ENDIAN
telephony
BoxAPI
##Probabilities
UrlLocation
CoreException
lookahead
VALIDATION
##Electron
bugReporter
Polymer
##BOX
getTriplets
WILDCARD
utc
##pre
##handle
##NameValuePair
##edResource
##ActionType
Definition
deviceAttribute
IndexableType
getScale
##stituent
CPDefinitionLink
Charsets
##Revisions
planner
reversing
getAdapter
Resolved
flattened
##Credit
Signal
CasWebflow
succ
##uzzy
CoreSPI
LS
Pixel
PUSH
kn
micro
t3
unt
##mode
##Facing
##Mongo
##Pub
##vable
getThis
StringFilter
isFinal
chk
appDef
##KeyMetadata
logException
##Configure
col1
getPredicate
closeable
ifcFlow
##Checks
searcher
##NonFed
##BagLayout
destinationName
RecyclerView
marked
GridBagLayout
THE
InputType
Blocking
getPreferred
##EEP
FORB
##uplicates
##IGNED
##Triangle
lbvserver
Evaluator
##8601
setConstraintMin
SIConnectionLostException
OtpErlang
Include
##ByUuidAndGroupId
##LmlAttribute
DRIVER
##yntactic
CasWebflowConstants
67
Sending
UCharacter
bg
cname
hd
uima
##Velocity
newPosition
##ilio
##chors
isAccessible
treturn
createG
fileId
prune
unbox
methodId
getCookie
##TableTree
prefixLength
visitCode
queued
##ConstructorCall
ignoreCase
FORMATTER
ca1
##JarFile
ArgUtils
PackageManager
launcher
SHA1
ntk
EXECUTION
readableBytes
##initial
TickRange
Camera
JQL
historic
mix
wrong
##rer
##OOT
##BOUND
##Merged
##MARK
##Rx
trg
##image
##ConfigRequest
##ConfigProperties
index1
indexer
##LError
getPipeline
##ItemCount
##enerate
targetId
nums
intermediate
##ReferenceSystem
##Recording
##UME
Transformation
QueryPos
ServerSocket
##AgentName
ColumnType
descriptors
##ovariance
UPD
BundleContext
##Ticks
Forward
##ShutdownHook
##mises
BugInstance
LAYER
Instrument
Deque
VERBOSE
##aternion
##azelcast
DEN
JMX
Pres
Rad
f0
pg
tol
##onom
getOn
getAccountId
##NameException
intervals
intercept
setLog
##ToC
getServices
ClassSymbol
clamp
getCP
##Strength
COMPARE
##OKE
csm
##VALUE
innerCount
sipApplicationSession
##Associates
avro
permit
getPlatform
##rospection
respond
Popbill
VisitorState
toExternalForm
PopbillException
some
##FX
##prop
##Pepper
nullable
##olations
getAt
getAm
getAttach
##outh
what
text1
##ViewHolder
firstChar
##Specifier
##ThreadContext
##Prior
visitEnd
NOTIFICATION
ExpressionTree
wsdl
grp
##WidgetOption
cleanUp
##neak
ApplicationInsights
Gradient
CPDefinitionOptionValueRel
Phase
Closed
addFieldToSource
interactiveObject
SELF
ApplicationInsightsComponent
Browser
JAR
LIN
MIS
Numeric
Pact
fleet
raft
sizes
##ief
##mas
##IRE
##Ten
getBucket
setW
valueSet
key2
Conv
nextValue
LOOK
strRecord
##TextNode
queryResult
findAnd
##CacheManager
deleteOnExit
splitted
Transient
totalCount
PropertyKeys
##Agreement
CPAttachmentFileEntry
##ognizer
CommonConstants
topicName
Grant
##GatewayInner
getMinY
TRANSPORT
presence
##PaddingException
Specification
PROCESSING
##Firewall
##KeepAlive
##Manipulator
GitLabApiForm
FORBIDDEN
Available
Eval
Ignoring
cobol
dq
hql
ry
sound
##Recursively
##leptic
inferred
resName
setFrom
isB
isNo
valueList
##MapView
##romatic
##Pojo
ExceptionUtils
checker
removeResult
decrease
##RowCount
ifcElectric
tmpCounter
##MetaInfo
Scroll
##Graphic
##SignKeyword
SYNC
sipSession
getApplicationName
PLACE
TemplateException
CodeType
##ategorical
issues
##RAW
Soap
STOPPED
RewriteRuleTokenStream
deleteresources
CLEAR
SCHEDULE
CmsRpcAction
53
EOL
Fs
GH
T5
Techn
nPos
ox
squ
sup
waiter
##joint
##BIN
##Mill
##itness
setInstance
addData
##ResId
##ListEntry
appContext
##Comparable
Exit
requestPath
typeRegistry
Injector
fileExtension
array1
rootElement
##Plans
getEnt
deprecated
##Detect
PARSE
##Quad
##ReturnScope
Stateful
EntityManager
canal
Unsafe
threadContext
sslConfig
signum
TOOL
PERIOD
SearchResult
##Serializers
getApplicationContext
tailUrl
##Skeleton
SELECTED
##Prediction
provided
TSDB
setSiteRoot
##CurlyBracket
PROXIES
Cql
Save
Use
mass
zookeeper
##rases
##OAD
##Deep
##Rename
##Iam
##06
##cedence
newLength
isMulti
addFilter
addFirst
##pond
ch2
##enger
##ToMany
lengths
getAOP
sha1
updateAsync
taskTracker
loadFrom
leftChild
viewId
##TransactionId
atomic
##Applications
phrase
##CmsObject
##Opening
Removing
##Elt
MPSInt
##ENDAR
Aggregated
##UserSegmentEntryId
##ollout
SNAP
CELL
Ui
Velocity
aFile
##matrix
##gml
##Have
getTransport
contrib
addType
##Chat
##Ints
requestUrl
##PropertyData
##paration
getLower
hasValue
getCountry
servicegroup
findOne
countDown
Union
##PreDefined
##econdition
##Discriminator
getKeys
Shell
controls
##Indic
GRANT
lease
##amilies
OBJ
##GRAPH
getLastChild
unmarshaller
getMinValue
##ITIONAL
getStateHelper
retryCount
setPaint
MBeanServer
##SecondaryIndex
REGISTRY
toJSONString
Vertical
Throwables
TWO
58
Bar
Factor
RC
Wx
c3
letter
pph
##bug
##LC
##RU
##EOF
##2Access
##43
getTransform
##omial
##Inactive
setReference
##NodeInfo
getSp
##ArrayValue
CmsLayoutBundle
principals
##NotExist
##Unicode
propertyPath
propertyDescriptor
##ExpressionRule
baseClass
stringWriter
Acad
MethodDescriptor
JsonParseException
bytesPer
EXIT
authenticated
ISS
##ickname
sortOrder
capitalize
networkInterface
shutdownNow
Editor
XAER
##Identifiable
svg
peers
certificateName
##OrganizationRel
dayOfYear
BorderFactory
##Speed
DECLARATION
46
ite
mLayout
xm
##nel
##Pat
getVertex
getUsers
newObject
##itlement
##Conference
stderr
setItem
requestURI
currentType
##ForClass
##ErrorUtils
##Aligned
##Delimited
##InputFormat
getEqu
dbf
Timed
##MaxSize
javascript
##ConsumerBuilder
ItemData
##Deserialization
Dispatcher
getContentLength
JAXBException
Moment
distances
LoggerFactory
##amble
DOMException
ARGS
Backend
createEReference
optimize
initEReference
##Fragments
SMBUtil
##arlyExitException
Bbox
Deep
FaxJob
GC
MAT
MIME
NF
PX
Polling
Vol
ZONE
become
dout
fa
##Coding
##46
getProfile
##InGroup
##Requirement
setShow
addRule
##ValueList
##Asynch
##ysql
##ClientConfig
listItem
##EventId
getCredentials
getMimeType
REAL
cacheManager
dbObj
KeyType
##ConsumerPoint
getLogin
phi
clsName
TransactionState
nonEmpty
getScore
abbrev
getEndTime
##Occurred
OWNER
numerator
SecretKeySpec
##Languages
getDetail
##rottle
JawrConstant
##written
JTextField
PM
SFS
mState
nbs
wd
##Ast
##YNC
setTag
setBounds
readLength
##AMM
unread
Resp
##Anonymous
LA13
propertyKey
##AppBeans
##MatchSet
confidence
##iverse
buttons
unsigned
artifacts
MultiPoint
##vilege
lowest
##Normalizer
awaitTermination
getJavaMember
DoubleMatrix1D
##rieved
AcadColor
Gateway
Handle
Mean
Recur
narrow
q2
tid
##mac
##CAST
##orrow
getHead
integral
##aily
pathname
##ULES
##izations
##InputHandler
loading
PageFlow
getTables
##MappingException
termin
##Lease
##Initialize
##Descendants
graphic
Health
Already
##Corpus
##header
##Percentile
PlanNode
##Hydrogen
getFlag
HierarchicalProperty
##ulnerability
JsHdr2Access
Cr
Hyper
Mac
PS
a34
hls
largest
oth
robot
tar
##BED
##si
##Pause
##gb
##Navigator
##Xbase
##78
##truct
##utations
##Reached
##irable
getSnapshot
subSequence
subnet
##Clients
entryName
##001
list2
node2
##Outside
maxResults
serviceClass
ServiceLoader
sourceNode
##Prepared
commerceAddress
##Repair
design
UserGroup
InternalException
fireProperty
indicator
SUBSC
FILL
##rospect
CAPACITY
getSubscription
CmsWidgetDialog
ParserRuleReturnScope
##ealot
##AssetCategoryRel
closing
datab
how
mps
wire
##nu
newElement
setTask
setDo
##RequestHandler
##ORS
##yslog
##motion
sublen
checkString
clientConfig
##RIES
objectManagerState
getClasses
##ICS
reliability
Regex
Registration
##Signing
MAPPER
##Weekday
##AutoScaling
TargetApi
getDependencies
Stopwatch
JmsErrorUtils
##Alternative
ParsingException
SwingUtilities
verbatim
CONTINUE
##folio
IRI
MORE
NT
Ternary
h3
zos
##902
##eration
getVector
##ulary
##deli
infer
dataFile
CmsHistory
##TableRequest
##ICT
getFragment
##Locking
##ThreadLocal
copyFile
##imiters
validateIdentifier
called
caseIfcDistribution
CPSpecificationOption
scriptObject
##XMLElement
Preference
endpointConfiguration
##DeviceType
protocols
##DirectConnectGateway
##nglobal
deref
DELAY
routes
IRubyObject
OperationStatusResponseInner
vpnglobal
PrivilegedActionException
AUTHENTICATION
SimpleAntlrPackage
Bid
FAT
IReaction
NAV
hole
ovh
##sFrom
##RW
##PM
##Tcp
##UCTION
##onitor
getWeight
##Excludes
##elog
setQuery
isFunction
addPreferred
##msd
getSimple
FilePath
Collect
##EventListeners
checkbox
checkClosed
checkArgNotNull
##UserGroup
##ConnectionPool
##PropertiesFile
DateHelper
##Matchers
ConfigProperty
##context
setSrv
##Expansion
BeanMetaData
##uced
ART
##nswers
BOOL
weeks
unwrapped
##Speech
decompress
##FRAME
natural
##ough
SUBSYSTEM
##neaky
Ajax
SPAR
SITE
nice
vd
xae
x509
##uet
##wk
##Xa
getCharactersCharacterId
isAvailable
##Stanza
addParam
forClass
chf
##StateChanged
ArrayType
LOGGING
defs
##CodeBase
##ConnectionManager
getFailure
jsonObj
##ByteChannel
paramValues
statuses
backing
##PoolName
sqlManager
##Minor
COMPARATOR
##DDL
offs
jarEntry
##STRING
##RYPTION
POINTER
##Deployed
Attempt
violation
getRelationship
recurse
##Collaborator
Nonempty
##Negotiator
pphoneNumber
After
FOC
IV
durable
mDrawer
snap
##Bn
##html
##Estim
getConversation
##rome
##edFile
setOp
##imed
##ResponseHandler
##Aspect
prep
##URED
getDraw
childNodes
getTypeId
##content
parameterFactory
trimTo
CPFriendlyURLEntry
spaces
databaseType
SecurityManager
##LoopGroup
##Personnel
##AccSettings
##Triplet
##ParsingException
MavenProject
OWLAxiom
##inished
CWSIP0002
CALENDAR
FAMILY
Located
Tensor
cand
fout
oy
##LEN
##Ons
##Density
##Rates
getArgs
setSystem
##TypeNames
##ORG
asInt
argin
getLoad
##sgi
itemType
interaction
notation
MethodSymbol
componentIndex
imageUrl
clustering
webSocket
##PermissionSet
##Conflict
IMPLEMENT
##InformationInner
grad
ComponentPlacement
ScriptRuntime
isNegative
GENERAL
ENCRYPT
##VirtualOrderItem
LayoutStyle
COLORS
##CRC
itsLocation
getAndSet
provide
getBackup
reversingLine
addPreferredGap
76
GONE
cutoff
fre
hc
pType
tiles
newId
##eller
addRow
addMember
ObjectNode
ObjectHelper
key1
##DataKey
sequences
##Thumbnail
##ASON
ServiceInstance
Rejected
getBranch
REPE
##oinbase
jsonParser
handled
rangeStart
##Opened
uses
SAXParser
getEndPoint
zzMarked
interfaceClass
Quaternion
v201902
savedInstanceState
##ubsub
##Neighbors
writers
Animation
##Performance
getImplicit
zzMarkedPos
Geom
Nucleotide
Road
Weight
ny
xor
##DOWN
##pass
##41
##93
##ingu
##ecast
##Continuation
##otes
##Tooltip
fieldMap
##ooth
##ITT
##NullValue
##ForKey
printUsage
STRI
minmax
swagger
english
0x10
##Plural
generators
##overage
##CommandClass
##DocId
Show
getFieldValue
##ChunkSize
StorageException
##Approval
CPInstanceUuid
Simon
citygml
##uetooth
68
Autom
EChange
Fedora
ITER
Navigation
Trie
bIs
gz
kid
tan
##cap
##Scheduling
##MARY
##NULL
getCondition
newItem
##Exclusion
inout
repositories
##StringBuffer
prim
type2
indexA
##most
CmsCategory
CmsAccessControlEntry
##EntryBean
writeLine
writeUTF
pathParameters
printError
##StatusException
LA1
localized
##UrlBuilder
array2
##ParameterValue
##Modifiable
ifcSurface
##ativeArray
LocalTransaction
##VariableValue
Enabled
##ChangeLog
##forcing
getJar
Username
##ConsumerSession
isSingle
getSheet
DOMSource
SPECIFICATION
ClosureParams
##Geometries
##nots
lineno
HttpHeaderNames
AsnException
##ortray
eye
CIAdmin
forceCreateModelElement
validateIdentifierKey
EarlyExitException
##network
##My
##Rolling
##TO
currentRow
currentProject
writeMethod
serviceId
##Transitions
##Stride
computed
contentHandler
##ContainerPage
STROKE
Execute
proxyPort
diffs
##ConnectTimeout
FILENAME
BOX
pRqDt
##WhiteSpace
Twilio
##ShippingFixedOptionRel
##Recurrence
v201808
GreenPepper
Alias
Ep
Keras
Limit
kafka
will
##Suc
##Marg
##Numer
##GGER
##Groovy
getUUID
getValidation
getCommon
newSymbol
integr
##Rewrite
log4j
##epolicy
Mappeable
CmsEntity
getPersistent
##STATUS
##TextValue
##Preparation
streaming
discriminator
##Hashes
##pool
##Compute
runExample
UNAUTH
alt2
JobID
perms
preds
##AttrName
NameValuePair
Dispatch
##ConversionException
Styles
SharedPreferences
getSpecification
SERVLET
WIMMessage
##FIELD
CmsWidgetDialogParameter
04
TD
Too
bone
iRecord
wlp
##FIL
StringEntity
##igation
isOn
##ToObject
##Challenge
classDef
##Acquire
typeface
typeVariable
byteOrder
##StartTag
getBool
##SegmentIndex
commandName
postag
Functions
##Presentation
##PropName
getHistory
##Planar
suite
Reliability
CONFLIC
##Creative
svd
shards
primitiveType
COMPLETED
processorsMap
##aturated
DU
Dao
Family
Gauge
High
Next
hold
jql
##Volat
##Ct
##ingTicket
##ublicKey
rebuild
##aper
##Buddy
apps
##FileInfo
##Deferred
Probe
##Sequencer
##Thrift
loggerName
minSize
getRet
##ACES
getButton
JsonValue
Seq
getOver
getXml
expectedValue
fetchByCommerce
rmi
##Translate
##URRENCY
vmScaleSetName
##Shards
soapModels
countryCode
router
##ffffff
SiteInner
trailing
scratch
##Motif
##Separated
Pipe
Smb
bins
eff
eee
sStr
##Sess
##FER
##MODE
##Tot
getComment
##Compen
requestType
dataOutputStream
getAPI
Prop
ascii
hasPermission
##ForName
##Logged
getMaster
countBy
itm
arrayType
srcPos
CommercePriceEntry
Contents
Vector2d
ipv4
getContentPane
JavaFileObject
##Distances
OpCodes
##Notebook
##Eviction
##Coef
##initeProgress
##DeclaredType
SAML
getCapacity
deviceDataArg
BC
Cron
Organization
Pager
Reb
Tcp
bank
mLock
our
wl
##comp
##Savings
##Ufs
##esis
getCharset
##omaly
setJob
##ToByteArray
##ESC
dataIndex
strURL
LA17
clientRequestId
closeConnection
##ampled
text2
##AddressRel
##LocalTransaction
assertTrue
##Milliseconds
##TemplateElement
TRAIL
OperationContext
##Significant
unsupported
SETTINGS
Relative
getShard
WITHOUT
##Invalidate
plane
TIMER
IoSession
getJavaType
MenuItem
getOrigin
RandomVariableInterface
##Automaton
##TaxFixedRateAddressRel
Art
Ops
ZIP
schemas
##PubSub
##Nano
##Timestamps
##GEST
##iltin
isNumber
##thon
prime
##ople
argC
Comb
endExclusive
eventId
HttpException
##Prebuilt
processId
baseUri
##ReferenceCode
LogManager
invoice
alt15
##TopLevel
##MetricName
##TimeoutMs
bestMatch
Pojo
##Writes
jsMsg
DIRECTION
##Datastore
##ABILITY
enumClass
LayoutHelper
predictions
cusparse
CmsSelectWidgetOption
85
95
Folder
FTP
IBM
License
MobicentsSip
VT
mag
##V4
##Pwd
##XX
##edImage
##rown
setLocale
logic
requestHeaders
##avel
##IDS
##ElementName
##FieldAccess
##GroupRel
dataManager
pathList
##Severity
ends
messageDigest
##UserAgent
objectTo
##QLink
##ADD
DataPoint
JsonWriter
##Encrypted
xmlns
##IfEmpty
hostId
##Transactional
SeaGlass
##Pretty
ApiCallback
Deploy
canConsume
DocumentException
termVector
##Presenter
GRAD
##VIEW
##AvailableException
numberOfObjectives
datetime
##Thrown
##Ticker
getPrimitive
Facelet
instructions
KamNode
ClickEvent
##PaymentMethodGroupRel
JFrame
JMF
MC
MIX
aos
hel
mu
##Bas
##Zxid
##inant
createValue
createEClass
##FileManager
##FileChooser
##PropertyNames
listId
initEClass
queryBy
##Tagger
fromPageResponse
##TaskStatus
0x20
##Modulus
notifier
URIBuilder
##Keyspace
alt1
##Atomic
Theme
getParentNode
IFD
SCROL
reducer
##MeasureSpec
getScroll
getInjection
Decom
Photo
0x0F
isAlive
AVAILABLE
ReturnCode
White
percentage
getInternalName
ZoneId
##500Principal
CRLF
ForkJoin
##Reinforcing
##lecularFormula
Num
bh
fst
srid
##mium
##Rfs
##Glob
##Gauge
##Xid
setTags
addDefault
##ClassNode
##angular
Intuit
ClassUtil
##uctr
checkAnd
PRINT
enlist
urlEncode
##Decoration
getFolder
##Always
##Algorithms
##IfCurrent
parameterValue
RESET
##WordIndex
webapp
CommonXML
Disabled
Checksum
getAsJsonObject
##JSONObject
getShape
sqle
SSLException
sentences
##KNN
interfaceType
##Multiplier
##Skin
topologyName
WEIGHT
Multivalued
INSENSITIVE
0x7f
REGISTER
MPXJ
Ai
Dialect
Free
PE
Qr
sre
sgroup
wallet
##jdbc
##ze
##ually
##ett
##inv
getRegistry
##sequence
##licting
##iline
##Inject
setNull
isCollection
isVerbose
addHandler
examples
##oops
valueStr
##KeyType
##RequestBody
keyLength
getSum
##emper
col0
Compan
##UserID
getValueType
groupname
outputType
withLabel
Nullness
parameterMap
CLA
##QueueName
##DetailsTree
cfDef
ProjectTask
CLOUD
##ExtData
WORKER
##Siblings
mbr
##DetectionJob
BIGINT
SIBUuid12
##rosstab
Membership
getJPAColumnName
199
Arc
Coded
jTextField
##miss
##Aw
##TC
##Uid
##GON
setRef
setOperation
##lim
createProject
CmsListItem
getDat
##AndRelease
interpolate
getFeatures
val1
Logic
##ramid
ElementMatcher
##JsonDeserializer
Generate
getRemaining
Expressions
##Blur
waitTime
##Writers
##ponsive
##Deviation
completedFuture
MemorySegment
##TrustStore
MenuConstants
##comes
##ShipmentItem
##Reconnect
GwtIncompatible
##OLOGY
Sofa
Vocab
Zoo
Zero
azure
##Robot
newTransformer
isAll
addEntry
##ToS
startIdx
##annable
##span
relPath
encodeBase64
atom1
##Closeable
##PostProcessing
##RenderContext
ColumnFamily
indentation
##Gene
##PixelSize
Background
SipURI
getSecurityManager
##idueNumber
##Accelerator
addQueryParam
DN
MA
Ont
PD
RFC
Singleton
ZWave
bo
iq
lbm
sampling
watermark
##Limiter
##P2
##ingIterator
isO
isObject
##oun
appendTag
createM
FileFilter
##ClientRequest
##OrMore
##ASED
getRules
##AndType
##SourceFile
sessionFactory
getBe
MessageInfo
##IfPresent
beginTransaction
ValueType
getHtml
immediate
servletRequest
getTableNames
converters
BasicNameValuePair
uniqueId
OPTIONAL
Allocation
cudnn
workflowName
##RegisteredService
##ipple
##Software
DEPEND
getMatching
##rieval
getLatitude
##Mechanism
CURVE
WildcardType
DEPLOYMENT
LAMB
hqlParser
nbsp
1e
70
HIDDEN
Of
Syntax
density
i0
jaas
measures
##ims
##DE
##vacy
##Tw
##Glyph
##42
##orum
getTrace
forced
toNanos
##artz
##oscal
createSequential
##LEGAL
responseContent
##ITOR
##ANC
sct
##CodeException
getValueFrom
columnValue
##OMATIC
xmlReader
cpRule
poolSize
getMaxY
storageAccountName
##ibraries
yearOf
PdfDictionary
Encoder
##ABET
uiComponent
mutations
ILLEGAL
Scalar
coverage
getProjectIdOrPath
iKeyArea
TRANSLATION
##ASCII
AffineTransform
4096
createSequentialGroup
JNDI
Mgt
Snow
XPATH
sfs
triggers
wake
##bench
##raction
##Large
##ptr
##Maybe
##Pol
##etAddress
##nti
##anityCheck
##omb
setJ
setReturn
##engine
##ToWrite
##ATING
IntTuple
##StateManager
##Colour
fileInfo
##Directed
##CallExpression
lastException
queryFor
RELE
participant
featureName
##riever
subscriptions
getEntityClazz
JsMessage
##SuperType
##Immediate
convrt
isHidden
writeValueAsString
Publisher
getNamedItem
inetAddress
MessagingException
##lepticYear
Break
sField
uv
wt
##cn
##2Exception
##Inherited
##ableResourceBundle
isVar
chat
applet
##acent
getSSL
##ResponseBody
subQuery
readData
##ItemRequest
list1
uninstall
##EventDefinition
strLen
Restriction
formatString
Unary
##AndView
propertyId
onComplete
getBorder
##ImageOps
getKeyword
rightChild
##DocBuilder
##DoubleVector
CPOptionValue
##Usages
documentation
CouldNot
QUOT
ELEMENTS
JvmType
uniqueName
rounding
##flake
workspaceMgr
unbind
##CONFIGURATION
jboss
##Demand
Successfully
bAddQuotes
CAN
GS
IHas
LIGHT
OData
PDF
Space
ips
pic
##Loss
##FaxJob
##Dp
##Air
##gmt
getDefinition
##ended
restrict
setService
##ToClient
getStep
getPerson
hasErrors
getCard
lastSlash
##BlockInfo
getFinish
##Parity
##pret
jobSchedule
JsonReader
beanManager
CPOption
getGauge
proxyHost
MINIMUM
ServletResponse
##MeasureValue
JavaScript
MatrixPredicate
ARN
##Validators
packed
vertx
zoneName
ZipOutputStream
##Distinct
BRACKET
GVRSceneObject
persistenceUnit
##Collision
SelectionKey
fragments
##Affinity
##visionedProduct
CmsFormatterBean
CONCURRENT
MENU
Jdk8
##onomy
Hibernate
QR
TANG
aH
##Broken
##unds
##Meth
##Roll
setLeft
addRequest
addPoint
Inner
ArrayDeque
##ServiceInner
##ErrorResources
##Interpreter
##ConnectionName
##ConnectionListener
Toast
getTax
alt19
##ChangeType
##ological
Commons
UTF16
Checkpoint
ELEM
getSelector
Decision
recovered
##celable
authorize
DerOutputStream
setOutputProperty
##Pkg
##erritory
Attempting
##Remain
MPXJException
Company
DynamoDB
Sy
SRC
rh
##SRE
##iable
##Aln
##Gd
##KV
##YY
##98
getEn
##InMs
addWidget
classify
##FileReader
typeTo
InMemory
maxHeight
defaultValues
LA19
updateState
##ContentTree
##ParameterName
within
##RuleRequest
taskManager
replacements
allocator
##Widths
attributeNames
Timephased
CLASSES
postfix
Replic
SHUT
getParameterNames
##lexity
EXTENDED
Startup
##Maturity
isCancel
WHITE
##Cleaner
Initialization
percentile
codePointAt
syntaxError
Avro
INSTALL
collapse
QPathEntry
CmsContextMenu
MovieDbException
pstmt
##idelity
77
JWT
ODocument
eat
jButton
jndi
mw
##aa
##xx
##Scenario
##Annot
newSet
tracking
##KeyInner
##AsBytes
collected
getAnnotated
fieldValues
getLAYER
check2
##Taglet
obj2
##BeanClass
##Discard
##Adv
operationName
diagnostics
getLocalHost
predicted
getNodeId
collectionType
cfw
getAbsoluteFile
getNormal
##SnapshotRequest
PERCENT
getLongitude
Incorrect
ProgressListener
backgroundPainter
##levation
Smack
##PossibleInCurrent
FINISHED
labAccountName
PKCS
##rospected
##efficients
volatility
Liberty
SURFACE
GRADIENT
##PossibleInCurrentConfigurationException
Cast
Coding
Solr
b4
ia
overrides
##SV
##Closing
getOptional
##amed
setRoot
setUp
isClass
addCell
toLong
Inject
Protein
readOffset
node1
STMT
objectId
outputFormat
firstByte
##Deliver
##Clauses
searchOptionalParameter
##PLACE
calibration
CommerceCountry
##IFACT
Meter
colorChooser
TableProperty
transactions
##ClusterRequest
getNextSibling
##UNIT
##LayeredItem
Memcached
##PredicateBuilder
##CLASS
cookieName
Datagram
thenCompose
plainText
blacklist
##Permit
uris
setDaemon
v201811
Helpers
reversedLine
##Issues
ExpressRouteCircuit
whitelist
PactDsl
Clean
Lab
Panel
gold
rval
sites
xlog
##cg
##date
##POL
##UPPORTED
##lend
getErrors
createDocument
responseType
nodeTo
whole
##Forms
##OLID
##QueryException
executeCommand
##AnnotationType
dirName
URLClassLoader
##Prime
##ApplicationRequest
CommerceTierPriceEntry
##PostProcessor
tsd
getColumnType
roleName
qualifiers
ADDITIONAL
selectors
getWorkflow
Backpressure
gui
advanced
Datastore
PlainDate
Undertow
##ortrayal
FNC
GMT
hue
iidx
lag
magnitude
pRequest
trie
##Oper
##Sy
##Wars
##dog
newProxy
##edException
chronology
createEmpty
currentUser
subState
##EntryType
configurator
shrink
getMulti
refine
##PrefixLength
TaskManager
cpInstance
getIp
##Subsystem
##ognize
##WebSocket
ClientException
NameNode
##Phi
drawLine
capability
corporationId
DISABLE
##CorporationId
##Verb
submitted
REFRESH
404
Associate
createNewFile
##tenanceWindow
##Effects
##ercator
INCRE
checkRequiredTag
2000
82
Fn
FLE
ICal
RAND
fqn
pseudo
##Ob
##IER
##wl
##TAG
getGenerated
nullSafe
##rivate
##Insertion
nameValue
createIndex
##imize
prevent
responseHeaders
lastTime
##Shown
##ColumnType
rootCms
getBinding
baseURI
disassociate
##ProcessInstance
##ISE
componentClass
Timex3
getMinX
OutputKeys
skin
SpecTopic
XPathExpression
AVIM
##GrantingTicket
##Presence
Parsing
MonetaryAmount
getBindable
##erministic
basename
##Cidr
CMD
IModel
Omemo
Tiff
ZK
dense
mNext
messagingEngine
oi
ol
##Ontology
##xied
##M2
##dt
##HING
##ingConfiguration
##licative
addAndGet
##ervo
##DataPoint
createLabel
##ByQuery
requestInfo
nextState
##unity
##Starts
##ChildNode
InvalidArgument
##Checkbox
serverId
sqlType
authToken
##MetaClass
##JsonSerializer
##ironments
##Chaincode
##MemberMap
##SummaryList
GRAPH
##RouteTable
subscriptionName
EXTR
SocketChannel
##Persons
coef
delayed
branches
fwd
permutation
portletWindow
##SHOT
##CRS
PrcEntity
cudaError
commerceOrderId
##PerformException
##ouncement
##SUMER
##Concatenation
getSlot
##PreparationAndRelease
CouldNotPerformException
Jdk8Methods
CANN
Migration
ade
bot
dlp
kryo
las
rsc
##ciliation
##ially
##Furn
##Doubles
##deep
retention
newX
##account
setFirst
##MapShape
##Tra
sizeInBytes
LA16
##AndValue
childs
isDep
##ThreadFactory
##OutputFormat
##IfMissing
handleRequest
alt13
##Capable
SCEN
getHas
##ProtocolVersion
##lemetry
ProcessBuilder
Invoker
ScriptException
lowerCase
Reading
SUBJECT
##TaxLine
DevVar
sso
##ARGE
getItsOwner
##Occurrences
getPoint3d
##istencyLevel
getAndIncrement
VirtualMachineScaleSet
REVERS
##Copier
##Medium
LatLng
isDisabled
DRL6Lexer
##VoltDB
getBindableJavaType
05
Acl
KEEP
Lang
Sas
Unc
Zk
vb
##d5
##dim
##Cnv
##UCE
##GH
##72
##ooper
##Traffic
classloader
##FileIO
##ObjectFactory
getSchedule
idTo
responseBody
strName
localFile
##Tagged
##Subtract
##ategies
doPost
evict
##Searcher
##Equipment
Structr
motion
singletonMap
##Brace
##ichString
CRC
zoomLevel
##ecessors
##icipants
##ServiceInterfacePort
##Alternate
##Throughput
simplified
XmlPullParser
##OCKET
setConstraintMinStrLen
ML
Tre
fade
jt
nse
nLen
##bop
##porations
##MATCH
##Maven
##RON
##EList
##49
consp
setProxy
isBefore
prolepticYear
typeRef
Provisioning
##STREAM
##EventDate
##ECH
##CallBack
##DefinitionName
##LOG
tmpDir
getPropertyValue
##BodyPart
alt3
##phen
Shutdown
##Uses
applications
consbop
##OpenMode
##SignException
Serialized
##Clicked
setFocus
AtomicReference
##EmailAddress
getAuthor
orElseThrow
bufferedReader
createEAttribute
Beans
vpnvserver
getPublicKey
GEOMET
##Prefetch
initEAttribute
Protos
fullyQualified
tensorflow
##handled
##emperature
It
Jackson
SS
ma
rq
##jp
##Suggestions
##Crit
##NUM
##Taken
getES
returnClientRequestId
##Inform
inclusive
setSelection
##ONLY
typeReference
##InfoBean
errorReporter
sourceName
Reason
##ParameterException
InvalidKerasConfigurationException
##BeanFactory
deleteFile
##shift
ResponseWriter
initialCapacity
##mmut
getJdbc
stopwatch
EventHandler
Plural
##Rendered
##Different
cascade
SecurityActions
ExecutionContext
Decl
crash
VoltXMLElement
forwardIfCurrent
XMLStreamReader
getLabels
##Facets
KNN
SchedulerException
##Fitness
setErrorMessage
Sentence
CREDENTIAL
Manager
PMD
Skip
fCurrent
##ga
intArray
replay
setNumber
isModified
adding
addKey
##ussion
##ServiceSoap
unprocessed
##ermal
enumer
withDefault
firstChild
##BeanO
tagger
taglet
doWith
flt
paramList
##RootDir
##escr
alt17
##marize
CommerceWishList
ATTACH
Play
getCurrentProject
##sToAdd
##BindingStub
##ByteArrayOutputStream
##Weeks
Declared
##MediaType
slots
##ManagedType
SECRET
##Triple
getFully
vecs
Resolve
UNSUPPORTED
ProcessorConstants
DIGIT
decorate
semanticObject
##deepLevel
##ServiceSoapBindingStub
Bin
TM
Voice
coupon
fh
h0
hf
jawr
mgr
xslt
##tter
##SVpn
##service
##Yaml
##rofile
##isible
setRow
keyPair
##DataTypes
id2
ExceptionUtil
fileContent
hasNo
##TableNames
##EndTime
firstPage
Interaction
rulePostProcessing
StreamSupport
opPos
##Been
detection
##Learning
EMBED
Disable
tileSize
life
##uplicated
##PrintStream
DELIV
declaredType
##Regexp
XPathContext
Resolver
##nowledgeBase
##ommended
MeasureSpec
##AbsolutePath
CAPITAL
AdapterUtil
addCallMethod
##ountered
getArn
balancer
PAYLOAD
TIFF
Voldem
englishTrain
##ettuce
Snowflake
78
Dfu
IIO
MF
NA
SB
Sketch
UID
fct
jid
pString
##param
##Wire
##Portrayal
##Tls
##hancer
stp
reserve
setGroup
projected
exe
##treet
keySize
##Collect
subclass
##ServiceImpl
formal
errorNode
LA8
row1
notFound
##PTH
LogEvent
jsonNode
ofs
AbstractItem
caseIfcValue
ServerConfiguration
##NetworkInterface
METAL
##ProgressBar
periods
##olationLevel
PhoneNumber
CmsXmlException
review
redirectUri
##Discret
Corporation
repoName
RouteFilter
SoyMsg
##Neighbour
ATOM
median
##JmsConstants
GuacamoleException
getPeriod
readPropertyObject
FATAL
92
ADT
BOLD
CClassLoader
TICK
Vi
etag
ta
tif
vt
##bits
##OPTION
##Bounded
##Vfs
##hole
##JDBC
##ontent
##leas
getUpper
##icol
##ictor
newVersion
##Expl
##access
##Rewriter
setPriority
isStart
##otopes
forest
##atched
##ToStart
##ClassContext
##Composition
##Computer
##RequestMarshaller
##SetId
##Traces
##FileStatus
##angles
##Indexer
instanceName
Training
strParam
getCallback
getMajor
LA18
##TransitGateway
##AttributeInfo
Requires
deleteAll
disconf
##tiner
SibRa
##Cloned
MessageLog
assertThat
alt14
Selected
Outlier
visitType
spinner
##Symbolizer
Preferences
servletPath
0xffff
Altern
Activation
COMMON
Encode
##InvocationHandler
##Datapoints
MatchResult
getAuthorization
getSystemInfo
##Indentation
Datastream
##Deployments
violations
SwingConstants
##Archives
recipients
decrementAndGet
RxJava
PERSISTENT
##DoesNotExist
Cnv
EAST
FiniteProgress
Second
aP
halt
smtp
xdr
yield
##Stereo
##Dri
##QM
getUse
getVisibility
isAfter
addLanguage
##Dataflow
##ATYPE
##ithub
##StreamId
##akes
getSplit
currentOffset
startNode
##ALOG
##PropertyDefinition
##ServiceProvider
endOffset
getCost
messageKey
getRoles
Unauthorized
regular
##JobSchedule
JsonProcessingException
runOn
##expression
threadFactory
getGr
SCAN
noise
escapeXml
indirect
Heap
ARCH
getAsset
##PrimitiveType
##SuperColumn
IPAddress
unsetresources
TRIGGER
SQLiteDatabase
getFlags
DataStoreFactory
##Ledger
##AssignsTo
Consumes
DUPLIC
GREEN
aes
bk
walker
##ias
##Mix
##Modes
##Penalty
getConstraint
into
provision
##Valued
##liers
##SetBit
##uspended
##plus
##Accessed
getS3
Classification
dataList
nodePath
str2
strFieldName
formatDate
updateEntity
getBasic
directories
##PerDay
alt18
##000L
##Postfix
##Scripts
##SecurityFinding
ColumnInfo
BUILD
DISC
gene
JoinableResourceBundle
Bindings
contacts
DerValue
UNSAFE
##Avro
beginCreateOrUpdateAsync
##ReloadException
##UnaryOperator
##Provided
checkNotClosed
reactant
ANALYZ
120
Ann
Dashboard
Other
ck
cg
less
mSize
xsl
##Sys
##BERS
##Bank
##m2
##Poll
##69
##GC
ifd
newThrowable
setInitial
addAs
addView
##ToArray
resultMap
caseTriplet
##ureka
##ResponseMessage
datacenter
defer
##Interconnect
##Thumb
urlStr
fromType
interp
##ExecutionTime
http2
dateStr
Translation
##IfExists
##inesis
##Declarator
isSimple
bitCount
##Individual
Remo
VARCHAR
getStartIndex
MultiPolygon
fetchByUUID
Encryption
ASYNC
Arguments
CmsXmlContentProperty
AssociativeArray
##UnderTest
medium
CORBA
surface
accumulate
##overableUnit
##InitializationException
deadline
RAW
ThreadPoolExecutor
Dr
GO
GV
Lettuce
Ruby
Scenario
a24
iChangeType
renew
##Btn
##Dash
##Measured
##REC
##53
getFilters
star
elasticsearch
trxMessageHeader
##imen
valueNode
##lemental
createP
##NodeKey
##lerts
##LEVEL
CmsEncoder
##indup
maxActive
eventManager
minx
transitions
##UserData
##DefinitionSelect
##Applicable
getFinal
deleteCommerce
Logical
allProps
##udson
ResponseBuilder
exceptionHandler
Iterators
##Extend
ApiJmsConstants
getJoin
##IRG
predecessor
getAttributeName
##Pointers
itemsPerPage
optString
supertype
topicSpace
getAppName
ROUT
Completed
overall
latLng
cancelled
##cpy
##CostSharing
mcWrapper
getJobId
##averser
ParsePosition
PIPE
isSuccessful
##ROY
gotoPoint
SIDestination
v201805
##Contour
##InstanceGroupManager
Origin
earliest
##icolon
Cross
Foreign
Kie
Pass
Raster
SOUT
SALT
aIS
aRegistry
turn
##Lt
##Around
##Em
##GregorianCalendar
##InMinutes
reservation
setApp
setOperator
toXML
##FieldNames
fieldIndex
prefer
mapName
mapSize
maxRows
targetField
##resc
itemIterator
timed
ifcMaterial
##uda
MethodInfo
EXPLICIT
codepoint
OptionalThing
##Again
getOperand
getHyper
##ufact
##Overview
##CreationException
##Delayed
##SPEC
##Good
MMM
TypedValue
DestinationHandler
##PopupMenu
AGG
getCaller
occurrence
Analyzer
GU
Gobblin
HMS
aReal
cfs
##aff
##Marshall
##NE
getOnly
getEngine
newFix
stale
##stable
isShutdown
addObject
toAppend
##ListNode
createJob
CmsMessage
##OrCreate
argIn
##Outgoing
##EDED
hasAnnotation
eventSubscription
minMax
urlBuilder
getBand
streamSet
##RuleName
ifcC
iterators
##Advisor
lenient
##cons
amqp
XMLWriter
invokeLater
##ycast
slider
getGBC
CacheKey
ONLINE
Workbook
Invoice
##DisplayName
##ValidationContext
##Multiply
##bounds
frac
since
factors
GL11
getJobID
##Moved
##Mojo
AUTHOR
getMapped
##Cartesian
GZIPInputStream
##EntityRoleOptionalParameter
GuildWars
getGaugeBounds
##tinerary
EFileIO
aab
bel
basedir
pCart
singular
##Beat
##Wiki
##Camel
##Ancestors
##Knots
getFormatter
newChannel
thing
##NameList
##igible
setHandler
setSession
##otation
##Stiff
addAtom
addStandard
toBuilder
tryTo
##DataBuffer
createSession
createGraphics
requestData
outBuff
currentLine
submission
CmsRequestContext
errorMessages
##Undefined
deletion
##evelo
TypeSpec
##Anchors
##TableRow
getRout
rowData
##ParameterMap
streamWriter
##OUSE
beanInfo
traceId
Getting
##PAREN
CacheReloadException
isNullable
polling
pkgName
Quad
##StructureId
getPlace
getClazz
##Locals
##Occurs
generatedXML
Iso
addAttributeProcessor
BROW
recoverylog
DESTROY
suspended
getDeleted
##IFICATE
DIGITS
LBiObj
##Ownership
virtualNetworkGatewayName
verbatimEventDate
##deliver
##Compensation
##Stiffness
AX
Candidate
Lambda
Sneaky
TZ
eb
literals
wss
##junct
##Slices
##man
##MessagingEngine
##RoaringBitmap
##Ajax
##estr
getEnabled
getByteArray
##arb
##ents
rex
setN
##ryst
addSub
forInterface
ch1
##osu
##ATUR
writeHeader
pathElement
precondition
maxDepth
charValue
initCmsObject
##VersionsRequest
obj1
##HeaderValue
withDescription
InvalidRequestException
columnList
columnLabel
##AdGroup
stringBuffer
httpUriRequest
##Flgs
hashKey
caseIfcLayeredItem
CommerceCurrency
CPMeasurementUnit
AttributeSet
##ducers
displayDate
chains
evaluationTime
ProjectFile
MPSBoolean
getVert
geometryType
ensureNotNull
moved
environmentId
xstream
toks
Corner
ABORT
lexicon
Upgrade
##Similar
truncated
elapsedTime
SIConnectionDroppedException
gotoNext
Javac
omg
BsonDocument
MULTIPLE
DIMENSION
##EXPECTED
newFixnum
74
Boof
GSI
HA
Ne
Rollback
UOW
bTrace
frozen
kaf
x4
##night
##dav
##Kill
##QN
##sel
##utDown
isList
##Protect
##imals
##GroupsRequest
nextLong
##ClientFactory
getArchive
getPred
reading
mapType
configKey
LA14
##SourceInfo
##TaskId
NodeInfo
getFamily
jsonPath
##ChangeTo
XMLNode
caseIfcGeometric
metricRegistry
setSecurity
getHigh
##UNCH
localVarAccept
smc
Flush
##Datastream
DocPaths
collab
##Flushed
CommerceOrderItem
##Appearance
UNSIGNED
##EVENT
affected
SICO
getPermissions
TwilioRestClient
LARGE
Menus
NATIVE
dbs
##Fixture
##Pu
##Tex
##ZONE
getReplication
newStart
addURL
##ackbar
##ToCopy
##andbox
##ifetime
##lite
nameTo
##imbus
##aching
listSite
executed
##RICS
##ParameterSpec
##Reads
##BasePath
exceptionMessage
CLI
PARSER
atom2
CommerceWishListItem
postcard
ValueData
findById
##Reports
##Shortcut
caps
SPAN
Completable
unmarshall
tabs
geomajas
pmi
getAdmin
CALLBACK
setKeyArea
worldTo
##ZoomLevel
allocatedFromBuffer
CLEAN
getByResourceGroupWithServiceResponseAsync
##ATTRIB
SHUTDOWN
CANNOT
METALKNOB
allocatedFromBufferPool
POW
Warning
Xls
closer
dml
gav
jo
mcp
nw
##OOK
##ios
##lers
##Dense
##Rtx
##Txt
##from
##arder
toObject
##Energ
##PathException
Introspection
##OfT
##ResultType
getAverage
##OrExpression
getLo
maxIndex
getCoordinate
shipping
PRIMIT
##EndDate
NodeKey
withTags
orth
getFacet
##Workspaces
##Claims
backward
xmlWriter
imageFile
AL10
getOld
SUG
CommerceSubscriptionEntry
StreamOut
joinPaths
existsResource
Stored
Grails
##Splitter
GenericArrayType
METHODS
dtd
##Scaler
regexp
##UPParameter
virtualNetwork
currencyCode
collision
##Hooks
##MD5
ChronoUnit
##Parsers
prefetch
##FleetRequest
ASTHelpers
##Trimmed
##ollover
instrumentation
software
XmlPullParserException
getBlue
POLYGON
PREDIC
CUDA
ICommonsList
##Indicators
72
Book
Jd
RATE
bag
ori
queues
##Suggestion
##dingStrategy
##CENTER
##Treat
##fit
##hing
getArg
getChart
setNum
##ListNextOptions
##Compos
createH
##ByPath
##orePackage
##oreConnection
##MessageHandler
##AsMap
dataModel
##ITIES
##ANCH
##InternetGateway
deltas
##LogEvent
bufferOffset
initParams
##ConfigurationName
##Prefs
streamName
ifcLight
val2
##ParamType
jobAgentName
attributeValues
workers
authResult
##Removal
##Portfolio
##ChangeHandler
CLASSNAME
stopped
testClass
##Substring
getCurrentInstance
drawString
committed
progressRequestListener
##Extras
multipoint
nvaeMark
Incompatible
Associated
sparseLen
STRUCTURAL
IChemObject
addContainerGap
Stylesheet
MultivaluedMap
##Discretization
66
DUP
SENT
UNode
dem
la
##py
##X1
##70
##erisk
##org
getNames
##tran
insp
isUpperCase
topo
createKey
CmsIllegalArgumentException
##CallArguments
##ImplClass
##TagsRequest
##Contained
getBottom
oracle
##LocalDateTime
MethodType
JsonGenerator
attributeMap
authType
beanFactory
##QueuePoint
alt16
DEPTH
##Backoff
##SelectEClass
namespaceName
canWrite
scanResult
Delivery
##CellValue
##OCI
BeanId
##chedulable
actualValue
JAXBContext
regionMatches
GraphQL
languageManager
getEntityType
##dr2
getAtomContainer
DMatrixSparse
MtasParser
getRecordOwner
##Instructions
DescriptorValue
getDimensionPixelSize
owning
INVOKE
photoId
##tectionDomain
healthCheck
##SitemapEntry
Verify
Expand
Polyline
KunderaException
KunderaMetadata
##Caching
##Intersect
Leaf
QUALITY
GrayS16
##liesTo
Firewall
CitrusRuntimeException
DataLakeStore
##hedral
firePropertyChange
8859
Binder
Circular
Mjdbc
Sink
benchmark
jta
kl
nature
##object
##Itinerary
##2EEName
##Jedis
getChars
##ableKey
##Rejected
setDestination
getPoly
listNextWithServiceResponseAsync
strError
strClassName
##Defines
##Should
##UrlName
##Viewer
##sWithHttpInfo
stringify
widths
##EMPT
encodeAll
ERRORS
SUSP
metaInfo
agreement
TransactionException
WRITER
fetchByGroupId
##TaxCategory
FacesException
##Moment
animator
getUnicode
getJavaClass
Returns
lazyGetPrc
undo
##Nearest
##Destroyed
##ximate
simplify
SoftReference
##Integrity
##porationsCorporationId
##mmutability
91
Coverage
Fault
Handshake
MimeType
TE
couch
hh
weigh
##Orent
##Bldr
##matic
##Fmt
##Families
##Vocab
##vector
##vpx
##fact
##Ejb
##Gram
getStats
getMetamodel
##arms
introspect
isMatch
isLeap
##otHub
##INAL
createContext
createXML
##FileAttributes
##MessageId
##Define
##GroupSettings
idp
fileLength
##ResourceInfo
defaultCharset
TypeUtil
##awn
groupIndex
taskState
getTypeArguments
JsonProperty
KeyFactory
applyTo
reportChangeTo
##Slack
##VERAGE
webRequest
##Webhook
##Structured
specified
##istribute
##BarField
DevState
##UserSegmentCriterion
getAuthority
getSiteManager
rotateLeft
##Combiner
##MacroResolver
observations
##Offering
##Violations
centroids
Router
##Ordinal
Predicates
setTokenBoundaries
PhysicalEntity
##QCN
##RWLock
SCENAR
COD
CEM
HH
Netty
csp
diss
wiki
##OICE
##Iid
##UInt
##GID
##Hide
##X0
##Jmx
getCon
newLocal
##qual
setRes
setConfiguration
setProp
addon
##ponder
##ibble
ObjectId
##GroupSet
nextByte
readProject
preInvoke
strProperty
##Nulls
debugf
##QueryNode
Require
replaceWith
partOf
loadProperties
refund
containerConfig
##UpTo
UNCH
UNEXPECTED
##QueueSize
commerceCurrency
##OSS
SUP
DefaultMutableTreeNode
isSecure
descriptions
OperationFailedException
getHdr2
##Reducer
bestSoFar
SETTING
##UsageMetrics
MPSDouble
MODIFY
jjte
DELTA
ManagedInstance
REGION
REMO
##908
##Radial
##roughput
StructureException
getThreadContext
Popup
Launcher
CertPath
ResourceMetricInner
RBBINode
P1
UINT
basis
iam
iDisplay
mention
pLogger
sB
ten
u1
u2
##number
##een
##Listen
##Crc
##CSC
##ASet
##Toggle
##56
nex
newP
newRow
residual
##TypeRequest
##alloc
##MapEntry
keyCode
##WithPos
fileNames
readBoolean
fieldNode
##MethodType
nodeHandle
##ETURN
##TextArea
getMenu
streamID
deleteCharAt
##ProcessException
partner
MessageStoreException
workDir
UNDER
##ProjectId
##uccessful
caseIfcRel
##IFEST
cpg
canBe
getHome
validators
GROUPS
releaseConnection
orElseGet
TOPOLOGY
CWSIA
##READY
mtasFields
getDimensions
mountPoint
##Propagation
##Purge
##MODIFIED
memoize
isCancelled
##rystal
93
Cart
MIC
Team
cpo
et
tuples
##Ty
##QR
getExecutor
getCommit
##tee
##aps
setHost
isr
##Sticky
##ListOptions
CmsPrincipal
getPeer
configProps
methodSignature
##TextSize
##Allocated
##illa
MathUtils
withName
Bytecode
DataTypes
viewer
ParameterException
##DescriptionInner
##NonZero
Shank
##BatchRequest
memberName
capt
getAnnotationType
divider
##marks
BasicDBObject
DOMConstants
getExpected
getExchange
##TickMark
BACKUP
setHidden
Redirect
ruleXExpression
trainingData
urn
AFP
ManagementFactory
SWITCH
ElemTemplateElement
getJSType
##roller
InsnList
SCENARIO
CPTaxCategory
Final
JPA
Writ
aRequest
fedora
ze
##cm
##Sleep
##MAN
##Given
##inel
newY
nullValue
isOnline
production
nameNode
createC
##ByID
##EntryPoint
readExternal
##ServiceRequest
##URIs
removeLast
scm
##ariants
getMean
msgItem
##PropertiesList
Release
tableId
DateRange
##ProviderException
beanMetaData
actionName
annotationValue
TaskInProgress
resolveType
WebFragment
descending
RepositoryResource
evaluated
maturity
ENCRYPTION
declaringType
presenter
RSAP
##Whitelist
EXTENSIONS
deny
ENGINE
getExternalContext
Reflective
##member
##WaterMark
DRL5Expressions
addLanguageEntry
DMatrixSparseCSC
BUS
CURRENCY
DIT
EFF
JP
Weighted
ZMatrixRMaj
migrate
##eff
##uOr
##WEST
##Rings
##domain
##Ping
##TY
##Tango
##ulian
##NameAvailability
setFrame
addButton
addConverter
experiment
length1
ObjectManager
##ObjectInspector
##NodeData
##IndexMap
currentTransaction
##ETag
##izedContent
compliance
DoubleSolution
##Processes
##ATEWAY
getEJB
##OutputDir
poi
visitField
postProcess
##SecurityConfig
Servlets
##OpCode
connectTimeout
##EditText
addrs
##Associated
refreshToken
getSystemService
skill
##ContactType
XMLStreamConstants
BRANCH
##DescrBuilder
##Cancelled
##Avg
COMMITTED
BootstrapConstants
sawOpcode
##Adaptor
##Compressor
SUMMARY
offspring
TANGO
SUGGEST
JFileChooser
Neighb
Right
XObject
bSuccess
boost
caught
hub
pStream
paging
passed
rst
##Micros
##RPC
##IED
##X509
##2API
##Inclusion
inherit
setHas
isGroup
##temap
ObjectStream
classIndex
createResponse
logDir
##StreamHandler
outstanding
##Pose
nextFilter
##opt
resourceTypes
resourceLoader
##parity
methodType
##ManagerImpl
##Forwarded
matchType
##LineItem
##LineNumber
##AndCheck
arrayOffset
##Paras
##RecordId
##udMode
sqlConnection
ALREADY
TaskAttemptID
incompatible
SCAL
signing
##Trackers
Stripe
JavaRDD
selectedIndex
ActBarField
##Extraction
adminCms
GeoPoint
##Translated
ChronoField
DATATYPE
PARTIAL
AttrContext
getAccessToken
Drawer
parsing
Capture
##TryCatch
Evidence
##Expectation
##ancers
SINotPossibleInCurrentConfigurationException
CPDAvailabilityEstimate
1998
MgtKey
SOUTH
97
Aws
Observer
RB
coding
lng
srs
suggestion
tpl
##Salt
##BD
##stream
##Fidelity
##di
##Cutoff
##Pivot
##hind
getProgress
##trace
##trans
##igand
isDir
thisObj
addComment
##Prompt
trait
trade
##artment
comparing
loggers
currentByte
CmsADE
resourceLocation
readUTF
##STable
##ForNone
##FromUrl
scoring
numCoords
##EndPosition
itemName
onCompleted
sessionService
relOps
##phrase
CHR
##DetailPage
caseIfcRepresentationItem
CommerceRegion
javadoc
##Suppressed
##Termin
SimpleType
UserMessage
terminated
IMM
##ProductName
##DomainRequest
Discrete
Added
pcm
blank
##ClosedException
Declar
Decoder
recoverable
allowTag
getApplicationMetadata
getItemData
RECOVER
uploadFile
##vides
##DevAttr
EXPIRED
ECBlocks
PersistenceUnit
similar
##MBeanServer
cudaDevAttr
##GradientPaint
deepCopy
redisSchema
##WorkingDay
DISTANCE
CodecUtil
retainAll
Failover
facade
getDBIDs
CmsClientSitemapEntry
ANTIALIASING
Offline
##tleEndian
checkStringNotEmpty
fCurrentEntity
LettuceAssert
K1
Nio
Sem
Where
fed
udf
wf
##DAT
##V6
##Too
##ists
##NameTo
inserted
toP
##lop
##Toast
resultHandler
ObjectUtils
##Ended
##FileShare
getSrc
getSerializer
ClassProject
col2
ask
argMap
hasAttribute
updateUser
##uperTypes
##AccessKey
miny
getRetry
objValue
row0
textProvider
propertyMap
SIP
httpPost
DataModel
KEYSTORE
PathNotFoundException
##Compilation
apiName
commerceRegion
commerceTierPriceEntry
##Quarter
getFieldType
##yclic
getParentFolder
PATCH
TextField
##SETTINGS
productName
netBuffer
flowId
##Exports
VirtualFile
VirtualNetworkGateway
ZipInputStream
vectors
identifiers
##Means
dividend
##OURCES
getDbContext
feedback
smallest
##Offerings
JinxException
CouchDB
##WRITE
##Copied
##EnclosingScope
IntegrationAccount
gw2API
CloneNotSupportedException
##CLUSIVE
getAOPMemberAccess
##bugs
Poll
T6
fy
human
jetty
semantics
slope
##params
##gl
##91
neur
newBuffer
isUser
##RequestUtil
##ByClass
getSkin
pathSeparator
readQuery
readTimeout
##ETIC
##TextColor
scl
PRESSED
compaction
isDes
##Paren
LogEntry
##Delim
cacheConfig
KEYCODE
splitter
IfcStructural
##IfNotNull
viewPort
AbstractType
Severe
Enable
SimpleEntry
Modification
spread
ModelAndView
flushBuffer
getMaxValue
##Grad
getNav
##PluginConfiguration
##Above
##Arrow
SourceFile
JSDocInfo
SUBMIT
retrieveList
##ASTORE
jjtree
##POCH
setTimeInMillis
entityTypeId
fastASet
200908
Receive
##BuildingElement
CompletionStage
dataMediaPair
##encies
##AuthorizedException
##avigableMap
SNAPSHOT
getDrawable
##arbage
Jdon
EPOCH
JQM
MY
MDC
Nls
Orientation
PAN
ray
##ming
##Ds
##Mac
##ZK
##57
getVariant
##ising
##ubble
##isters
continuation
setVertical
addStyle
appInfo
##egot
##ByParent
##Introspector
##ConfigData
##ResponseRequest
instanceType
subPath
nextEntry
getCriteria
##FromConfig
##Texts
targeted
##LogLevel
sourceWriter
eventBus
##RIL
findNode
calls
callstack
##SourceName
0x2
MathUtil
tableIndex
sendTo
ruleSet
TaskTracker
visitLabel
##Generators
webElement
ImageView
providerInfo
##RelationalDatabase
exprs
invalidation
##UniqueName
TRANSPAR
JsDoc
getDeclaredConstructor
##Identities
bbp
ConstraintViolationException
sharding
getterName
##ChangesLog
symm
OAuth2
centers
##ORIZED
SignatureException
getAdj
REDIRECT
a51
##Modifications
DirectoryEntry
blackHole
##Permits
uncompressed
##onyms
##stablish
##Audience
gslbs
##Below
AUTHORIZATION
getESuperTypes
##Energy
CURLY
Finder
K2
Live
Many
ajax
weighted
##client
##VInt
##atId
getExtended
##tefact
setAdditional
isSystem
isOptional
##uminance
choices
##ERA
##ERN
##DataUnit
##ConfigProperty
typeParameter
getSdk
IntSet
currentContext
currentChunk
##even
parentScreen
Unix
##TagProvider
filterName
##placement
destName
FieldData
srcDir
##ExecutionId
##LockObject
recording
##HttpUrl
hostPort
imageName
##ESTATIC
##ioButton
searchResult
ThreadFactory
##128
##readed
ValueExpression
AttributeType
##ACTIVE
pools
##PRG
##Partitioner
Checking
##MultiRole
getInclude
##Correlation
getTargetException
SSLEngine
getErrorStream
FORCE
##Door
equalTo
epfl
##InjectionPoint
AtlasPerf
a52
WorkerPool
creds
CATALOG
getCorporationsCorporationId
getSampleDouble
Waiting
setMinimumSize
##Contributor
##Correction
consumers
##complexity
Restrictions
PRIMITIVE
JdonFramework
AtlasPerfTracer
Cmd
Cancell
JIT
OCT
Same
Stereo
Two
Vault
Zealot
iCurrent
pFactory
ys
##SimpleName
##DED
##Mount
##Must
##CName
##Y1
##ingName
setSchema
##ListView
##SetType
Experiment
typeArgs
##TimeOut
getPrec
mapView
##ComponentModel
##nalog
checkIs
##FromNode
printStream
##Shapes
optionMaturity
##SessionImpl
jsonResponse
NullSafe
##Visual
ALTER
XMLReader
JobSchedule
EntityUtils
detected
setSo
##SymbolTable
##Tracks
##UsageEntry
importer
Activ
HEADERS
JsApi
getTaskId
##DevFailed
##SPACE
Subscribe
ConstraintViolation
##POSITE
ELException
Initializing
changesLog
automaton
SarlPackage
draggable
##StyledAttributes
IPv6Address
HTT
Look
LNG
PIX
iid
miss
mProgress
mCurr
zw
##Orient
##Sarl
##Safely
##identifier
##BAR
##Filled
##Rgb
##draw
##Hard
##team
##omers
##esture
setCharacter
setRight
isText
##ToByte
##lips
createChild
createPut
##StateList
currentKey
readFields
##SizeIn
##activity
unrec
strVal
getDi
##FromStream
defaultString
##Strs
callMethod
##TagId
MathML
##BlockMeta
destPath
##LocalVariable
##HttpSession
gridwidth
##Backward
##125
webcontainer
Func0
##Whole
ViewHolder
layoutParams
##About
netty
##Corners
getModification
seq1
RectF
externalContext
enumType
tzid
dataSourceName
getRelated
hexString
MetaData
ProviderInfo
ADJ
a53
LinearRing
##arrative
##Preset
analysisCache
DIGEST
##Episode
##irectional
integrationAccountName
MERGE
##ExceededException
getAmount
NullnessAnnotation
SmackException
DUPLICATE
02d
ERA
Gram
Junction
RM
S1
TException
Tld
With
bx
dj
dz
jCheckBox
jenkins
r0
##OA
##Mgmt
##Pc
##gc
setQuick
isDefined
##TypeBuilder
##TypeCode
equivalent
##IndexName
putDouble
##ESPEC
indexB
longOpt
FileVisit
pathString
##EventDetails
getLcd
##ANDS
lastEntry
lastToken
##ConfigurationConstants
urlPattern
LongStream
PathUtils
##HttpHeaders
hosting
getOrg
conflict
CONTACT
verifier
##NTAX
##ProgressMonitor
leap
ScreenModel
##ExportManager
castTo
ReferenceField
collDef
vmName
OpTypes
##IBILITY
byteArrayOutputStream
##ationalContext
renameTo
getScreenRecord
##FedNonFed
sanitized
NDArrayIndex
WorkerPoolResourceInner
Dcs
Mp
OSET
SLO
UDP
a55
aRWLock
##Duplicates
##fa
##Gaussian
##Hull
##Jump
##eterm
##onfig
getVal
##ancy
##urname
inodes
constants
isR
isTable
##TypeHint
createDirectory
startTag
fileChannel
readLines
maxIterations
getDig
##Unused
##TableData
getValueAt
Stanza
childElement
##SessionData
##WorkItem
dbContextFactory
##areJid
callee
postInvoke
StreamTokenizer
Defines
cpFriendlyURLEntry
Executing
getRece
CommonUtils
packageInfo
specs
collections
##ProtocolException
BeanContext
##PartitionId
ProcessInstance
escapeString
InputSplit
SerialMessage
getVolume
TRANSFER
sipApplication
sipServletRequest
OnClickListener
criteriaBuilder
DocPath
setPadding
DeviceProxy
AsyncHandler
DependencyInfo
triangle
MANIFEST
bias
a54
##XAException
ConversationState
CmsResourceTypeXml
Splitter
REVISION
CQLTranslator
##prefix
UNAUTHORIZED
SCROLL
##Remainder
RANDOM
Writing
Dsc
Holder
Misc
TREE
Way
jac
lessThan
mant
vh
xz
##Spring
##RARY
##Hoc
##orPeriod
getVisible
getAccept
getResolved
##ommitted
##InScope
inMemory
##ques
##Reuse
isKey
name2
createDate
##OfMeasure
currentItem
listNextAsync
parseExpression
album
clientUUID
filterConfig
##AndReturn
executeMethod
getEvalu
ResourceNotFoundException
uriInfo
##pedia
sendRedirect
segmentType
##Resolvers
getFileStatus
exter
INFORM
##Phrases
lvl
individual
##Extern
VariableElement
getEntityMetadata
##ClickHandler
Outputs
needTo
tracks
MutableBigInteger
portletWindowId
a45
getPackageManager
##TerminalType
getListOf
##Brackets
INVOKESTATIC
undec
Verification
##MultipartUpload
JournalException
##Raid
Transliterator
EXECUTOR
atan2
DocletConstants
##HydrogenCount
GreenPepperServerException
INCREMENT
111
Broadcast
DJ
Finished
GEN
UL
bcc
broken
fmap
g2d
music
nu
too
tint
##sOf
##FOR
##VC
##Ais
##asper
##ptions
##rep
setContainer
isComplete
addUser
toWrite
appengine
keyList
Explanation
currentLevel
CmsDom
##MethodCall
unresolved
##Forced
getCopy
groupID
0xc
##RuleSet
getEl
##Reading
initialise
commerceTaxMethod
##TemplateRequest
idx0
PROPNAME
XMLUtil
##Returned
locationName
getGreen
##RecyclerView
poolInfo
ItemType
##Photo
THIS
symbolTable
restClient
sharedSecret
definitions
LINEAR
Guice
getParamResource
setRequestMethod
##ClasspathEntry
pinv
patient
inflater
AmazonClientException
deliveryDelay
intuitMessage
Hybrid
reportChangeToEnclosingScope
CmsDomUtil
Kripton
LU
Naaccr
Pin
hoc
jdk
press
##Literals
##SR
##Sorter
##Menus
##IRI
##Hop
##4d
##ona
##ativ
publicId
setItems
isEnd
appendIf
##fferences
##NodeException
##ugment
requestCode
CmsContent
CmsLocale
getPercent
readNext
##ItemList
clauses
configPath
strField
getListeners
contextId
checkout
##piry
getMOR
CollectionUtil
##yname
##istrator
Universal
fromValue
fromFile
MethodHandle
refName
alt8
##SystemException
##DBCluster
Outbound
caseIfcDefinitionSelect
javac
##Terminate
Recommendation
##5555
Refresh
##Equivalence
##SecurityName
##itespaces
bestScore
Reload
READY
Accessibility
ec2
DELIM
sitemap
PackageDoc
##semble
MetaClass
##Google
##857
mailbox
stripped
##TrustManager
srvDatabase
##Macros
acknowledge
observation
StaplerRequest
Convolve
DeclaredType
DARK
Ddl
FQCN
IUser
JCheckBox
Ping
Rocks
Spe
Will
availability
mType
mContent
persister
##FT
##Cy
getNotification
##urm
##abric
repos
toInteger
##ListType
##DataWrapper
logged
writeElement
writeCharacters
resourceProvider
methodDescriptor
strType
strong
##FromResource
onItem
##ESSAGE
dateStyle
xmlContent
numberFormat
wordIndex
operationId
CommerceNotificationQueueEntry
rawName
factoryAppBeans
##EngineConfiguration
rsmd
USERS
chaincode
##Receipt
getElementType
Canal
ConsumerDispatcher
##Replicated
WHEN
convState
deployments
getVariableValue
txnId
DEVVAR
obtainStyledAttributes
##Placeholders
##Automation
ProtoNetwork
FaxException
##Delegation
FrameworkException
CERTIFICATE
##status
Vector3fc
##ubicCurve
BoxJSONResponse
Baas
Bandwidth
EOP
jmo
rounded
xw
##earch
##mak
getImpl
##iture
setClass
setValid
exped
##pline
getSupport
currentEntry
dataService
Tracer
CmsMacroResolver
##PropertyMap
hasRole
##Addition
Https
textView
taskType
baseURL
##CallbackHandler
JSONUtils
##Detach
MessageItem
##SegmentId
##Uploader
actionType
QueryParameters
Tokenizer
rightOperand
##Lenient
TaskType
##mapped
Reporter
Recipient
SCORE
Delay
Texture
##protected
getServiceName
##avigate
##Replaced
transportAPI
externalReferenceCode
means
ringSet
DATETIME
imaginary
##Granted
ConversionException
##Memberships
##Combine
DTD
##IllegalStateException
##ATERIAL
##rinsics
messager
##Replacer
##Parenthesis
Technical
HDR
JEL
Kryo
g1
nsp
rtp
wide
##WD
##dom
##POST
##Take
##TOKEN
##Git
##Ground
##YConstants
##92
getWord
setCommand
isLink
isServer
ex1
##ValueData
chooser
##ToLive
##ossible
##DataRequest
outpos
##MessageRequest
getSeconds
##pdu
subtitle
##ItemResult
defl
season
hasChild
targetEntity
##Intermediate
userID
##RIX
taskRecord
##Locality
LogUtil
jobProps
105
XMLConstants
WebResource
##CurrentPos
Paragraph
getMaxX
##Destinations
OrderBy
##Qualification
##CertificateAuthority
regions
Heuristic
DISCONN
BlockInfo
ExecutionState
icons
addChildTo
##cluding
jjtn
Visual
##groups
SECURE
##ResolutionContext
adjustment
episode
CloseableReference
Creative
Deserialization
JOYConstants
FaxClientSpi
##Article
0x3F
todo
Presence
becomeRoot
REPEAT
STRICT
JELLY
62
AminoAcid
DNS
DIA
FOOT
IRequestData
MES
R2
Volume
cq
gd
kk
pix
persisted
y3
##Schem
##Focused
##REST
##vl
##gence
getEvents
##teCar
##del
thumbnail
setSearch
setToolTip
setConnectTimeout
addLine
addEdge
##IdFrom
##ustr
createSocket
##nset
typeMap
##MessageStoreException
substr
getAudio
pathSid
##EventData
strClass
LAUNCH
numBands
Undefined
Reply
getFixed
##ValidID
##Discrete
flink
##ISUPParameter
paramNames
##GenerationException
uriVariables
serverConfig
##Compiled
##TTL
parameterBody
AbstractISUPParameter
Iteration
getCurrentNode
##PREC
atFine
topicNode
##BlockingQueue
##tlInv
Alg
notifyListeners
requiredType
getScal
##Entropy
suffixes
MultiLineString
Relational
PLAN
##avers
##JvmType
FILTERS
setBaseline
ocpDateConverted
##Permanent
tbn
##Javascript
ORIENTATION
STRUCTURE
lexerEngine
getTemporal
NORTHWEST
getRelativePath
FRACTIONS
AnalyzedToken
UIContextHolder
WIMMessageKey
ANALYZER
##eveloper
##teCarlo
0b
Answer
FT
MUST
OV
certificates
datal
hal
mn
mOn
mView
mSession
mismatch
timers
titles
##Stem
##Birth
##uo
##Make
##vg
getExtensions
newSchema
##iti
##abil
standalone
##ryp
tos
##ToReturn
##ToSend
buyer
classList
createCommerce
##Intel
##anging
##Indexing
requestParameters
Inventory
startPoint
##uclide
##PropertyDescriptor
unlink
maxCount
##ForField
##Thermal
Stub
##QueryRequest
##TagSet
HttpConfigConstants
objectID
textLen
##RegEx
##issa
##ecured
doLog
NoClassDef
allSettings
##ifying
##BaseService
##FoundError
pageNumber
commerceNotificationQueueEntry
##SystemProperties
##interrupt
ivNameSpace
TreePath
parserData
previousValue
##Leave
OperationType
providerName
unitText
grab
deltaY
Bitcoin
productVersion
getVideo
tabbedPane
SSLSocketFactory
ecorePackage
zzCurrentPos
MatchType
getEncryption
EXPONENT
bitmaps
Extensions
Runner
SHA256
Ellipse
bpm
CmsWorkplaceConfiguration
##reatIntel
w3c
##Blacklist
wbRequest
##ximation
JobExecutionInner
ApptentiveLog
CYRIL
getManifest
lifeCycle
HMSAgent
EOPPOSITE
##uclidean
NoClassDefFoundError
ivNameSpaceConfig
CYRILLIC
Before
Closing
Embeddable
JMenu
KAM
Sys
friendlyName
gf
mobile
##land
##Dyn
##RING
##Pab
##Effective
##Jetty
##orators
##ometh
##InMemory
setOffset
addDependency
toDir
##ToSet
createProxy
##NodeTypes
nextSetBit
fileIn
argType
strParams
removeSiteRoot
##Allocate
##AccessId
##ULD
findElement
getRGB
HttpUriRequest
interf
CONS
firstName
##Alter
jobSpec
##oking
blockIndex
imageId
labelname
cpAttachmentFileEntry
##ModuleMetaData
nsip
##Agents
XmlSchema
##Grace
deltaX
getNested
##Creating
SSLPROP
##vileges
##Balancing
Restore
##Predecessor
##AnalysisException
medi
WINDOWS
Editable
CTX
ResourceMetricDefinitionInner
unaryExpression
deviceDataArgin
##Informations
##Pabx
##omething
5000
61
71
BDD
MATERIAL
NLS
Scheme
a14
github
loss
synth
##iped
##Fund
##MR
##vals
##Ttl
##Granularity
##Hal
##track
finalE
throwIf
setBytes
isConstructor
isRequired
proposed
##Study
##DataImpl
createAttribute
##FileException
##NodeCounts
requestMethod
currentProperty
file2
pathPrefix
##ooting
Combo
##units
maxNum
ServiceCall
STAGE
clientName
msgId
##Sha
##ParameterizedType
interior
taskid
ifcText
getKeyArea
NonBlocking
recv
##Retrieval
commerceShippingMethod
Webcam
##DoubleArray
##Selectable
##Caps
ConnectionPool
DefaultValue
getFilePath
##DomainName
latency
COLUMNS
##ENDOR
zzBuffer
dimensionality
##PrintOptions
declarations
failureScope
Special
reduced
h2o
getOutbound
ifcStructuralLoad
writeEol
ouFqn
getLayoutBounds
getLeaf
CpoException
##WAYS
Packages
activities
COMPRESSION
SalesInvoice
BUILDER
ARTIFACT
##Furniture
SevereMessageStoreException
hocr
Hal
HSSF
Synchronization
VENDOR
escap
hull
rdd
rset
tap
uptime
##vd
##GreaterThan
##ining
##alFile
getStatistics
##icles
##ander
##depen
newString
inpos
##edValue
setTimeout
setDialog
setModified
setSubject
isWindows
toEpoch
applied
##ClassFile
length2
createWithServiceResponseAsync
type1
##ElementEClass
dataProvider
fileStatus
fieldname
##ITEM
seaGlass
getRound
getRunning
HttpFields
##TasksRequest
##BaseName
dbl
headerSize
assertArgument
handleResponse
alt21
##scale
ALWAYS
OutOf
diags
##Terminator
SimpleModule
Functional
providerId
showMessage
##Grab
consumerKey
changeBase
certkey
sqr
wrapperType
getTaskID
##Latest
normalizePath
Difference
getProjectProperties
skeleton
DevFailedUtils
Bounds
LOCKED
getEditor
FSData
##Combined
ArchivePath
##Optimization
MySQL
PGP
MANAGED
##Implementor
getLatest
##Stylesheet
##Legend
##Tiers
CoreSPIConnection
FileVisitResult
CIR
bInclude
flex
having
heron
mTemp
mysql
nrows
omit
piece
tomcat
##elemetry
##Oct
##Slow
##Fil
##Fork
##Misc
##Volumes
##du
getFormal
##seg
##Readers
setMode
isCompatible
thisMethodName
##PathList
getSig
getSorted
startValue
##ighter
nextUrl
CmsData
methodSig
poss
aligned
lastKey
##AndValues
builders
getClassDescriptor
disp
##InputFactory
ElementTags
WebXml
diagram
ResultPoint
##StorageAccount
##Qualifiers
RegistryException
Compute
Compiled
##CompletableFuture
##Overwrite
products
##Periodic
SYNTAX
uniqueID
additionalBehaviors
BatchGet
ValidationMessage
Visit
managedInstanceName
##YPES
Detected
PROTECTED
##Facility
Connectivity
VERTEX
photoset
Accum
Nfs3
##RadioButton
##Volatile
bhMgr
newProxyInstance
RxJavaPlugins
AGGREG
getPrecision
##ESPECIAL
Aip
RT
cpd
cancellation
foo
##na
##Land
##sCount
##uation
##Funds
##Daemon
##vec
##f4j
##GED
##Hot
getMapper
##Insets
setApplication
##ListSize
##ira
##RequestState
##TimeMs
currentResource
##SizeInBytes
INSTR
Columns
strReturn
hasChildren
##ForUser
getDelegate
##Uniform
printMessage
##Interpolation
subscribed
##Shader
##Android
##AndWait
processName
jobInfo
##ReadLock
ResponseConverter
uriBuilder
PathElement
orgUnit
##Supertype
##Compaction
##MinValue
Share
EntityRole
##DatabaseName
##CPDefinition
progressBar
##Screenshot
autoScaling
VirtualConnection
PLAY
BOOK
##DefinedItem
workerId
##andshaker
##Digital
WHITES
Customer
Chained
PACKET
EDITOR
DriverManager
getDayOfMonth
readUnsignedByte
setAutoCommit
HsqlName
CONVERS
SYNTH
reboot
ATTACHMENT
AXIS
##ubicCurveTo
CuOr
DZ
GBS
Ring
TIN
amt
bld
dyn
mot
north
sam
##bi
getDir
getWorker
newC
##essen
##InMonth
setOption
isZero
addPart
excel
##ibilities
##osted
classDesc
##imized
Ints
indexSrc
nextId
getAbstract
nodeTypes
##Forest
Resolution
##ErrorResponse
getMost
##Anomaly
localAis
##VersionInfo
validated
processDefinition
##ICATOR
##ColumnFamily
##TreeEntry
DoubleStream
##AnnotationInfo
PathImpl
headerValues
##SegmentType
commerceAvailabilityEstimate
TRUST
even
reportBug
Appender
getXMemberFeatureCall
dstOffset
timeoutMillis
threadName
ConnectionFactory
sphere
##Whitespaces
##ictim
packageNames
getUserInfo
waitUntil
getObjectName
TOO
##Ipv6
##PlaceHolder
JvmOperation
folders
SipSession
IAtomContainerSet
getCacheKey
getStruct
IoUtil
rdn
reconstitute
Reduce
owners
getJSONArray
expirationTime
sha256
CircuitBreaker
parameterToPair
isSubtype
PersistenceBrokerException
BoofConcurrency
Glyph
Historic
MIDD
Seek
UResourceBundle
aSrc
iw
iPrintOptions
jackson
mh
nss
ro
##json
##SanityCheck
##zkaban
##Mandatory
##arc
##ita
StringValue
setAddress
setFinish
setActual
isNode
isReady
nameSpace
putValue
##AsBoolean
##ips
##llis
startLine
bytePos
unzip
contextMap
errorList
parseFrom
targetValue
lastValue
HttpConnection
regenerate
tagId
##AnnotationElement
##OperationType
ConfigItem
EXACT
MessageProcessInfo
convertFrom
componentId
##CompilationUnit
UNIC
##PolicyName
internalSet
searchParams
##rtifactory
generateKey
schemaLocation
useDefault
getDefaultPerPage
DateTimeException
partitioner
ItemStack
125
Disassociate
##Supports
escapeHtml
pkcs
TRANSITION
sipContext
##Joiner
folderPath
DocTree
isInclude
##Inserts
skew
embeddedObject
PREVI
INVOKESPECIAL
getMemberAccess
kunderaQuery
ChartUtils
GitlabProject
##demix
AdGroupAd
AsciiString
deviceAttributeWritten
##SecurityFindingFilters
SneakyThrows
##eterminate
TechnicalException
changeBaseCat
0000
FAX
FALL
IMapping
OID
PEEK
PtoP
Sound
SURR
TL
iType
pure
tth
xb
##bind
##tice
##Fax
##CQ
##Ctor
##EG
##512
##erse
getNo
getTokens
getTopology
##ropd
introspected
##adget
##mento
##ilent
setForeground
toHex
toDegrees
chrom
##nclient
##KeySet
tryLock
##SetInner
namenode
##Timezone
currentSize
Computer
##ManagerSession
getCum
messageFilter
##NextEntry
##ContentLength
##ConnectionInfo
##Prep
##SubType
LogSupport
loadConstant
##OutputPath
EXPL
ElementType
alt22
##AccountSid
commerceSubscriptionEntry
##mediation
##ackingPlan
##Being
segmentId
storeLocal
Plot
market
##Recognizer
Deleting
##DestinationSettings
cfName
SessionManager
##ucee
zipFunction
Tuple3
blur
##Cores
##DirectCosts
JSError
##keys
CodeBuilder
nm01
setContentLength
Incons
cpDefinitionSpecificationOptionValue
##RelativeTo
getPrice
##CipherSuites
getStyles
SMALLINT
##ymmetry
##Midnight
GrayS32
##Legal
##Snippet
Surface
iDisplayFieldDesc
PIXEL
assertArgumentNotNull
CAS
Fess
HBC
RAT
VDM
eh
jScrollPane
mValue
synthetic
##FU
##Fade
##Ddl
##Micro
##Canceled
##Timers
##Hover
getSetting
newest
##entrant
setValues
isPrivate
isTransient
protein
##loom
##ToProcess
##osity
##ether
createWith
logDebug
equivalence
startOf
nextBlock
CmsCore
file1
##MethodInfo
##FromPath
TypeUtils
##Executed
##TaskName
##ViewId
columnTypes
##JobStatus
REASON
##Functional
Intermediate
JsonUtil
##ServerSocket
authenticator
beanDefinition
QueryRecorder
SEQ
##ServletContext
##BundleName
##CreateObject
Enhanced
searchResults
segmentName
ATTEMPT
datastream
##Monitors
compareToIgnoreCase
##protocol
##Tests
getPreparedStatement
spanStart
##AutoCommit
combiner
SipServletRequest
EJBException
getServerName
##Assigner
similarity
backgroundColor
CloseableHttpResponse
assoc
##Combination
workUnitState
RelationshipType
Vertx
getCreationTime
DetectorResponseInner
AUDIT
AppServiceCertificate
110
Abs
Hdfs
IMessage
Square
Suggested
aObject
lf
mor
mStart
occ
##bn
##Occup
##Sense
##Bg
##la
##Walk
##Coin
##ha
getUpload
getDirection
getUnsigned
getComma
newLinked
##ito
nullCheck
##Exc
intVal
inString
##igands
concurrency
setCreated
##pp3D
ex2
chan
##ToEmpty
valueForNone
appendReplacement
##fox
createMulti
##ithra
##ansac
##anger
startActivity
##nnamed
CmsPermissionSet
filenames
listAll
##InstancePath
##FromMap
findClass
findField
0xC
getClassifier
encl
dirPath
MessageProcessor
##VarData
##SettingsRequest
QueryParser
alt6
##IsNull
getResourceName
StreamSegment
FunctionType
TableColumn
relational
formatters
getParameterValue
primaryType
##ImportDeclaration
MPSIPAddress
##Editing
##MediaTypes
dotIndex
DurationFieldType
ARGB
##Observers
##SortedSet
ASSOCI
SINGLETON
NamedList
tpublic
getDatabaseName
clique
workingDirectory
xyz
ScheduledFuture
##Ec2Instance
cumulative
getFullyQualifiedName
PEEKED
##ropdown
96
AMF
BLOB
DSL
Grow
Mut
NORM
Unt
yOffset
##cur
##Migr
##Weighted
##Wizard
##NAMES
##Ge
##Hierarchical
##Y0
getSet
getChange
##peater
setProvider
resultset
##ERENCE
##ifted
createWidget
paras
Trade
toStringUtf8
writeDataValue
byteBuf
listMultiRole
defn
configDir
Complete
maxDistance
serviceRef
lastName
objClass
groupVertex
withValue
ifcProperty
SIRC
dirX
dirY
Ack
##uditor
blocked
topLeft
AbstractHtml
##PLY
resolveClass
shortArray
##TagsFor
getIntValue
feats
##IdentityProvider
VariableDeclaration
getModified
COMMER
##Suffixes
Phrase
##BackgroundColor
ValidationEvent
##Problems
##Sorting
WritableRaster
nnz
DestinationType
CurrencyUnit
getGenericType
surv
bandwidth
##Squares
DIFF
CmsFileUtil
copyFromUtf8
J2CA
mqLink
today
##PreparationAndReleaseTaskStatus
DELIVERY
pCartLn
numCoordsProperty
##ersey
Billing
Dummy
IotHub
Jid
P3
ROTATION
VIDE
aName
fresh
nRows
qry
vol
##cale
##FTP
##ESet
##Href
getNull
getStage
##rouper
newContent
##ellow
intLen
##entry
residue
setComponent
setServer
##thm
##ListHeaders
##INS
##ConfigException
##MessageItemStream
Intrinsics
indexOut
##FieldInfo
Proc
fieldId
printed
asBoolean
configName
str1
strBuilder
##FormField
hasChanged
##anners
getDialect
eventListener
elementCount
elementUtils
clientSecret
callNode
interpolation
##UpdateObject
uriTemplate
##earest
##SystemId
##DocTree
Scs
linkInfo
jcd
shortest
getLocalPart
serialMessage
mainClass
packagePath
lead
THROW
GraphObject
incremental
moment
dtp
##Swept
secData
getAtomic
MutableInt
behaviors
personal
##Guest
##Sigma
##LaunchConfiguration
PROTO
SHAPE
##NetBuffer
ScheduledExecutorService
getAgent
Bluetooth
succeeded
MACRO
BELScript
SftpStatusException
Collision
Instances
Raid
rfsName
LOOKUP
LAMBERT
Jn
JB
cce
granularity
i3
iStart
iTarget
jr
mDelegate
picture
tmpl
v4
wild
##Lemma
##SED
##Smooth
##REL
##Portion
##trate
##rot
##aspi
##eny
##iddle
setU
setEvent
addEvent
##ToField
keyId
keyGroup
nextSibling
inputFormat
INHER
##ITED
argOptions
stripe
getCore
removeProperty
sourceDir
lineLength
metamodel
##RuleException
destOffset
propertiesFile
##CheckSum
DataTable
##ReadObject
recall
serverAddress
hostLog
commandClass
##aterials
##ButtonBar
ALLOC
##Suppression
SimpleJob
##CCustom
showError
customize
##Unsupported
least
Advanced
getRootElement
##Corrupt
FLUSH
DOMHelper
cmpp
zzInput
siblings
getExtra
nm00
RuntimeFault
revoke
##SecretKey
getBlockSize
GeneralName
pieces
ERC
TimerTask
injectionPoint
Markup
EXISTING
twitter
##Playback
##Playlist
labName
Javascript
occurrences
Discovery
rollup
getMessagingEngineName
FilenameUtils
parameterToPairs
SISessionUnavailableException
KeyAreaInfo
##IdentifiableElement
SUBSCRIPTION
RejectedExecutionException
wsspi
PREVIOUS
600
99999
IIsotope
JPEG
browse
dimen
fall
jump
keras
nesting
##cated
##LU
##js
##FB
##Namer
##Kafka
##58
##leets
##orb
##ingConfig
neigh
##rowd
isGet
isNon
isWrite
##oders
addOr
addCallback
##Keyboard
keyStr
##DataDesc
createEvent
tcap
ClassReader
MapUtil
##ServiceClient
##ServiceSid
INCOM
sbox
formatName
##onePair
findNext
##AndName
Req
Reactive
Requirement
LongTuple
recognize
UnableTo
iter2
MessageUtils
getOu
CLASSPATH
CommerceNotificationAttachment
opName
Vector3D
getGrid
##CellRenderer
##Reporting
AdManagerSession
RecordOwner
blog
##AssignmentSelect
uploadId
BOOT
##RESOL
##Accuracy
getOrCreateComponentModel
365
ProtocolException
ConcurrentMap
When
srvOrm
CurrencyPair
##Approx
commercePriceListId
##Activations
degrees
steal
NDArray
MonomerNotation
removeFromParent
##Confirmation
CtClass
InterleavedF
##Merger
##DeniedException
##BINARY
EXTRACT
DfuBaseService
IIOMetadata
JsApiAccess
INFORMATION
AI
CQ
CSL
CARD
Horizontal
KW
MUT
Nav
Rob
WAR
Windup
a35
bread
ctl
handling
lem
south
yb
##ky
##beta
##Board
##JOR
##54
##etition
getActions
getGraphics
##sequent
##Inserted
intrinsic
##Reach
setUn
setReadOnly
setAllow
resultClass
##ifts
##player
##NodeName
##Utilization
Concat
getSw
##GroupBy
writeExternal
readMethod
readUser
##ArgumentTypeReference
##EventsRequest
serviceReference
##Interest
[...]
